#include "magic_wand_model_data.h"

// We need to keep the data array aligned on some architectures.
#ifdef __has_attribute
#define HAVE_ATTRIBUTE(x) __has_attribute(x)
#else
#define HAVE_ATTRIBUTE(x) 0
#endif
#if HAVE_ATTRIBUTE(aligned) || (defined(__GNUC__) && !defined(__clang__))
#define DATA_ALIGN_ATTRIBUTE __attribute__((aligned(4)))
#else
#define DATA_ALIGN_ATTRIBUTE
#endif

const unsigned char g_magic_wand_model_data[] DATA_ALIGN_ATTRIBUTE = {
  // Paste the data of the char array in `src/model.cc` here
  0x08, 0x00, 0x00, 0x00, 0x54, 0x46, 0x4c, 0x33, 0x62, 0xff, 0xff, 0xff,
  0x03, 0x00, 0x00, 0x00, 0x10, 0x00, 0x00, 0x00, 0x24, 0x00, 0x00, 0x00,
  0x78, 0x00, 0x00, 0x00, 0x24, 0x00, 0x00, 0x00, 0x05, 0x00, 0x00, 0x00,
  0x78, 0x05, 0x00, 0x00, 0xb0, 0x04, 0x00, 0x00, 0xe0, 0x02, 0x00, 0x00,
  0x60, 0x02, 0x00, 0x00, 0x54, 0x01, 0x00, 0x00, 0x01, 0x00, 0x00, 0x00,
  0x78, 0x00, 0x00, 0x00, 0x13, 0x00, 0x00, 0x00, 0x18, 0x30, 0x00, 0x00,
  0x14, 0x30, 0x00, 0x00, 0x20, 0x2f, 0x00, 0x00, 0xa8, 0x2e, 0x00, 0x00,
  0x3c, 0x2e, 0x00, 0x00, 0xec, 0x11, 0x00, 0x00, 0x98, 0x10, 0x00, 0x00,
  0xbc, 0x0e, 0x00, 0x00, 0x60, 0x06, 0x00, 0x00, 0xfc, 0x05, 0x00, 0x00,
  0x78, 0x05, 0x00, 0x00, 0xec, 0x2f, 0x00, 0x00, 0xe8, 0x2f, 0x00, 0x00,
  0xe4, 0x2f, 0x00, 0x00, 0xe0, 0x2f, 0x00, 0x00, 0xdc, 0x2f, 0x00, 0x00,
  0xd8, 0x2f, 0x00, 0x00, 0xd4, 0x2f, 0x00, 0x00, 0xd0, 0x2f, 0x00, 0x00,
  0x0f, 0x00, 0x00, 0x00, 0x4d, 0x4c, 0x49, 0x52, 0x20, 0x43, 0x6f, 0x6e,
  0x76, 0x65, 0x72, 0x74, 0x65, 0x64, 0x2e, 0x00, 0x00, 0x00, 0x0e, 0x00,
  0x18, 0x00, 0x04, 0x00, 0x08, 0x00, 0x0c, 0x00, 0x10, 0x00, 0x14, 0x00,
  0x0e, 0x00, 0x00, 0x00, 0x14, 0x00, 0x00, 0x00, 0x5c, 0x00, 0x00, 0x00,
  0x60, 0x00, 0x00, 0x00, 0x64, 0x00, 0x00, 0x00, 0x84, 0x00, 0x00, 0x00,
  0x12, 0x00, 0x00, 0x00, 0x48, 0x2f, 0x00, 0x00, 0xe4, 0x2e, 0x00, 0x00,
  0x3c, 0x2e, 0x00, 0x00, 0xd8, 0x2d, 0x00, 0x00, 0x70, 0x2d, 0x00, 0x00,
  0x1c, 0x11, 0x00, 0x00, 0xc0, 0x0f, 0x00, 0x00, 0xe4, 0x0d, 0x00, 0x00,
  0xa0, 0x05, 0x00, 0x00, 0x3c, 0x05, 0x00, 0x00, 0xb0, 0x04, 0x00, 0x00,
  0xe8, 0x03, 0x00, 0x00, 0x38, 0x03, 0x00, 0x00, 0xa4, 0x02, 0x00, 0x00,
  0x10, 0x02, 0x00, 0x00, 0x90, 0x01, 0x00, 0x00, 0xfc, 0x00, 0x00, 0x00,
  0x80, 0x00, 0x00, 0x00, 0x01, 0x00, 0x00, 0x00, 0x00, 0x00, 0x00, 0x00,
  0x01, 0x00, 0x00, 0x00, 0x11, 0x00, 0x00, 0x00, 0x08, 0x00, 0x00, 0x00,
  0x1c, 0x04, 0x00, 0x00, 0x58, 0x03, 0x00, 0x00, 0xc8, 0x02, 0x00, 0x00,
  0x24, 0x02, 0x00, 0x00, 0xac, 0x01, 0x00, 0x00, 0x10, 0x01, 0x00, 0x00,
  0x94, 0x00, 0x00, 0x00, 0x10, 0x00, 0x00, 0x00, 0x04, 0x00, 0x00, 0x00,
  0x6d, 0x61, 0x69, 0x6e, 0x00, 0x00, 0x00, 0x00, 0x8e, 0xff, 0xff, 0xff,
  0x00, 0x00, 0x00, 0x09, 0x04, 0x00, 0x00, 0x00, 0x1c, 0x00, 0x00, 0x00,
  0x10, 0x00, 0x00, 0x00, 0x04, 0x00, 0x00, 0x00, 0x0a, 0xd2, 0xff, 0xff,
  0x00, 0x00, 0x80, 0x3f, 0x01, 0x00, 0x00, 0x00, 0x11, 0x00, 0x00, 0x00,
  0x01, 0x00, 0x00, 0x00, 0x10, 0x00, 0x00, 0x00, 0xf6, 0xfb, 0xff, 0xff,
  0x00, 0x00, 0x00, 0x19, 0x01, 0x00, 0x00, 0x00, 0x8a, 0xd1, 0xff, 0xff,
  0x10, 0x00, 0x00, 0x00, 0x12, 0x00, 0x00, 0x00, 0x14, 0x00, 0x00, 0x00,
  0x20, 0x00, 0x00, 0x00, 0x02, 0x00, 0x00, 0x00, 0x01, 0x00, 0x00, 0x00,
  0x04, 0x00, 0x00, 0x00, 0x08, 0x00, 0x00, 0x00, 0x49, 0x64, 0x65, 0x6e,
  0x74, 0x69, 0x74, 0x79, 0x00, 0x00, 0x00, 0x00, 0xc4, 0xd1, 0xff, 0xff,
  0x00, 0x00, 0x0e, 0x00, 0x18, 0x00, 0x08, 0x00, 0x0c, 0x00, 0x10, 0x00,
  0x07, 0x00, 0x14, 0x00, 0x0e, 0x00, 0x00, 0x00, 0x00, 0x00, 0x00, 0x08,
  0x03, 0x00, 0x00, 0x00, 0x18, 0x00, 0x00, 0x00, 0x0c, 0x00, 0x00, 0x00,
  0x04, 0x00, 0x00, 0x00, 0x98, 0xd1, 0xff, 0xff, 0x01, 0x00, 0x00, 0x00,
  0x10, 0x00, 0x00, 0x00, 0x03, 0x00, 0x00, 0x00, 0x0f, 0x00, 0x00, 0x00,
  0x05, 0x00, 0x00, 0x00, 0x02, 0x00, 0x00, 0x00, 0x02, 0xd2, 0xff, 0xff,
  0x10, 0x00, 0x00, 0x00, 0x11, 0x00, 0x00, 0x00, 0x14, 0x00, 0x00, 0x00,
  0x30, 0x00, 0x00, 0x00, 0x02, 0x00, 0x00, 0x00, 0x01, 0x00, 0x00, 0x00,
  0x04, 0x00, 0x00, 0x00, 0x1a, 0x00, 0x00, 0x00, 0x73, 0x65, 0x71, 0x75,
  0x65, 0x6e, 0x74, 0x69, 0x61, 0x6c, 0x2f, 0x64, 0x65, 0x6e, 0x73, 0x65,
  0x5f, 0x31, 0x2f, 0x42, 0x69, 0x61, 0x73, 0x41, 0x64, 0x64, 0x00, 0x00,
  0xf4, 0xd1, 0xff, 0xff, 0xd6, 0xfd, 0xff, 0xff, 0x00, 0x00, 0x00, 0x08,
  0x03, 0x00, 0x00, 0x00, 0x24, 0x00, 0x00, 0x00, 0x18, 0x00, 0x00, 0x00,
  0x0c, 0x00, 0x00, 0x00, 0x00, 0x00, 0x06, 0x00, 0x08, 0x00, 0x07, 0x00,
  0x06, 0x00, 0x00, 0x00, 0x00, 0x00, 0x00, 0x01, 0x01, 0x00, 0x00, 0x00,
  0x0f, 0x00, 0x00, 0x00, 0x03, 0x00, 0x00, 0x00, 0x0e, 0x00, 0x00, 0x00,
  0x04, 0x00, 0x00, 0x00, 0x01, 0x00, 0x00, 0x00, 0xfe, 0xfc, 0xff, 0xff,
  0x00, 0x00, 0x00, 0x09, 0x01, 0x00, 0x00, 0x00, 0x92, 0xd2, 0xff, 0xff,
  0x10, 0x00, 0x00, 0x00, 0x10, 0x00, 0x00, 0x00, 0x14, 0x00, 0x00, 0x00,
  0x2c, 0x00, 0x00, 0x00, 0x02, 0x00, 0x00, 0x00, 0x01, 0x00, 0x00, 0x00,
  0x10, 0x00, 0x00, 0x00, 0x15, 0x00, 0x00, 0x00, 0x73, 0x65, 0x71, 0x75,
  0x65, 0x6e, 0x74, 0x69, 0x61, 0x6c, 0x2f, 0x64, 0x65, 0x6e, 0x73, 0x65,
  0x2f, 0x52, 0x65, 0x6c, 0x75, 0x00, 0x00, 0x00, 0xd8, 0xd2, 0xff, 0xff,
  0x00, 0x00, 0x0a, 0x00, 0x10, 0x00, 0x04, 0x00, 0x08, 0x00, 0x0c, 0x00,
  0x0a, 0x00, 0x00, 0x00, 0x02, 0x00, 0x00, 0x00, 0x10, 0x00, 0x00, 0x00,
  0x04, 0x00, 0x00, 0x00, 0x01, 0x00, 0x00, 0x00, 0x0e, 0x00, 0x00, 0x00,
  0x02, 0x00, 0x00, 0x00, 0x0d, 0x00, 0x00, 0x00, 0x03, 0x00, 0x00, 0x00,
  0x7a, 0xfd, 0xff, 0xff, 0x00, 0x00, 0x00, 0x16, 0x01, 0x00, 0x00, 0x00,
  0x0e, 0xd3, 0xff, 0xff, 0x10, 0x00, 0x00, 0x00, 0x0f, 0x00, 0x00, 0x00,
  0x14, 0x00, 0x00, 0x00, 0x30, 0x00, 0x00, 0x00, 0x02, 0x00, 0x00, 0x00,
  0x01, 0x00, 0x00, 0x00, 0x70, 0x00, 0x00, 0x00, 0x1a, 0x00, 0x00, 0x00,
  0x73, 0x65, 0x71, 0x75, 0x65, 0x6e, 0x74, 0x69, 0x61, 0x6c, 0x2f, 0x66,
  0x6c, 0x61, 0x74, 0x74, 0x65, 0x6e, 0x2f, 0x52, 0x65, 0x73, 0x68, 0x61,
  0x70, 0x65, 0x00, 0x00, 0x00, 0xd3, 0xff, 0xff, 0xe2, 0xfe, 0xff, 0xff,
  0x00, 0x00, 0x00, 0x05, 0x01, 0x00, 0x00, 0x00, 0x38, 0x00, 0x00, 0x00,
  0x2c, 0x00, 0x00, 0x00, 0x14, 0x00, 0x00, 0x00, 0x00, 0x00, 0x0e, 0x00,
  0x14, 0x00, 0x00, 0x00, 0x10, 0x00, 0x0c, 0x00, 0x08, 0x00, 0x04, 0x00,
  0x0e, 0x00, 0x00, 0x00, 0x03, 0x00, 0x00, 0x00, 0x01, 0x00, 0x00, 0x00,
  0x03, 0x00, 0x00, 0x00, 0x01, 0x00, 0x00, 0x00, 0x01, 0x00, 0x00, 0x00,
  0x0d, 0x00, 0x00, 0x00, 0x01, 0x00, 0x00, 0x00, 0x0c, 0x00, 0x00, 0x00,
  0x9e, 0xd3, 0xff, 0xff, 0x10, 0x00, 0x00, 0x00, 0x0e, 0x00, 0x00, 0x00,
  0x1c, 0x00, 0x00, 0x00, 0x40, 0x00, 0x00, 0x00, 0x04, 0x00, 0x00, 0x00,
  0x01, 0x00, 0x00, 0x00, 0x07, 0x00, 0x00, 0x00, 0x01, 0x00, 0x00, 0x00,
  0x10, 0x00, 0x00, 0x00, 0x22, 0x00, 0x00, 0x00, 0x73, 0x65, 0x71, 0x75,
  0x65, 0x6e, 0x74, 0x69, 0x61, 0x6c, 0x2f, 0x6d, 0x61, 0x78, 0x5f, 0x70,
  0x6f, 0x6f, 0x6c, 0x69, 0x6e, 0x67, 0x32, 0x64, 0x5f, 0x31, 0x2f, 0x4d,
  0x61, 0x78, 0x50, 0x6f, 0x6f, 0x6c, 0x00, 0x00, 0xa0, 0xd3, 0xff, 0xff,
  0xc2, 0xfe, 0xff, 0xff, 0x00, 0x00, 0x00, 0x01, 0x24, 0x00, 0x00, 0x00,
  0x18, 0x00, 0x00, 0x00, 0x04, 0x00, 0x00, 0x00, 0xb4, 0xfe, 0xff, 0xff,
  0x01, 0x00, 0x00, 0x00, 0x01, 0x00, 0x00, 0x00, 0x00, 0x00, 0x00, 0x01,
  0x01, 0x00, 0x00, 0x00, 0x0c, 0x00, 0x00, 0x00, 0x03, 0x00, 0x00, 0x00,
  0x0b, 0x00, 0x00, 0x00, 0x07, 0x00, 0x00, 0x00, 0x09, 0x00, 0x00, 0x00,
  0x2e, 0xd4, 0xff, 0xff, 0x10, 0x00, 0x00, 0x00, 0x0d, 0x00, 0x00, 0x00,
  0x1c, 0x00, 0x00, 0x00, 0x2c, 0x00, 0x00, 0x00, 0x04, 0x00, 0x00, 0x00,
  0x01, 0x00, 0x00, 0x00, 0x15, 0x00, 0x00, 0x00, 0x01, 0x00, 0x00, 0x00,
  0x10, 0x00, 0x00, 0x00, 0x0c, 0x00, 0x00, 0x00, 0x74, 0x66, 0x6c, 0x2e,
  0x63, 0x6f, 0x6e, 0x76, 0x5f, 0x32, 0x64, 0x31, 0x00, 0x00, 0x00, 0x00,
  0x74, 0xd4, 0xff, 0xff, 0x00, 0x00, 0x0e, 0x00, 0x1a, 0x00, 0x08, 0x00,
  0x0c, 0x00, 0x10, 0x00, 0x07, 0x00, 0x14, 0x00, 0x0e, 0x00, 0x00, 0x00,
  0x00, 0x00, 0x00, 0x05, 0x01, 0x00, 0x00, 0x00, 0x3c, 0x00, 0x00, 0x00,
  0x30, 0x00, 0x00, 0x00, 0x14, 0x00, 0x00, 0x00, 0x00, 0x00, 0x0e, 0x00,
  0x18, 0x00, 0x17, 0x00, 0x10, 0x00, 0x0c, 0x00, 0x08, 0x00, 0x04, 0x00,
  0x0e, 0x00, 0x00, 0x00, 0x03, 0x00, 0x00, 0x00, 0x03, 0x00, 0x00, 0x00,
  0x03, 0x00, 0x00, 0x00, 0x03, 0x00, 0x00, 0x00, 0x00, 0x00, 0x00, 0x01,
  0x01, 0x00, 0x00, 0x00, 0x0b, 0x00, 0x00, 0x00, 0x01, 0x00, 0x00, 0x00,
  0x0a, 0x00, 0x00, 0x00, 0x46, 0xff, 0xff, 0xff, 0x00, 0x00, 0x00, 0x11,
  0x01, 0x00, 0x00, 0x00, 0xda, 0xd4, 0xff, 0xff, 0x10, 0x00, 0x00, 0x00,
  0x0c, 0x00, 0x00, 0x00, 0x1c, 0x00, 0x00, 0x00, 0x40, 0x00, 0x00, 0x00,
  0x04, 0x00, 0x00, 0x00, 0x01, 0x00, 0x00, 0x00, 0x15, 0x00, 0x00, 0x00,
  0x01, 0x00, 0x00, 0x00, 0x08, 0x00, 0x00, 0x00, 0x20, 0x00, 0x00, 0x00,
  0x73, 0x65, 0x71, 0x75, 0x65, 0x6e, 0x74, 0x69, 0x61, 0x6c, 0x2f, 0x6d,
  0x61, 0x78, 0x5f, 0x70, 0x6f, 0x6f, 0x6c, 0x69, 0x6e, 0x67, 0x32, 0x64,
  0x2f, 0x4d, 0x61, 0x78, 0x50, 0x6f, 0x6f, 0x6c, 0x00, 0x00, 0x00, 0x00,
  0x34, 0xd5, 0xff, 0xff, 0x00, 0x00, 0x0e, 0x00, 0x14, 0x00, 0x00, 0x00,
  0x08, 0x00, 0x0c, 0x00, 0x07, 0x00, 0x10, 0x00, 0x0e, 0x00, 0x00, 0x00,
  0x00, 0x00, 0x00, 0x01, 0x30, 0x00, 0x00, 0x00, 0x24, 0x00, 0x00, 0x00,
  0x10, 0x00, 0x00, 0x00, 0x0c, 0x00, 0x10, 0x00, 0x00, 0x00, 0x04, 0x00,
  0x08, 0x00, 0x0f, 0x00, 0x0c, 0x00, 0x00, 0x00, 0x01, 0x00, 0x00, 0x00,
  0x01, 0x00, 0x00, 0x00, 0x00, 0x00, 0x00, 0x01, 0x01, 0x00, 0x00, 0x00,
  0x0a, 0x00, 0x00, 0x00, 0x03, 0x00, 0x00, 0x00, 0x00, 0x00, 0x00, 0x00,
  0x06, 0x00, 0x00, 0x00, 0x08, 0x00, 0x00, 0x00, 0x00, 0x00, 0x0a, 0x00,
  0x0c, 0x00, 0x07, 0x00, 0x00, 0x00, 0x08, 0x00, 0x0a, 0x00, 0x00, 0x00,
  0x00, 0x00, 0x00, 0x03, 0x01, 0x00, 0x00, 0x00, 0x9e, 0xd5, 0xff, 0xff,
  0x10, 0x00, 0x00, 0x00, 0x0b, 0x00, 0x00, 0x00, 0x1c, 0x00, 0x00, 0x00,
  0x28, 0x00, 0x00, 0x00, 0x04, 0x00, 0x00, 0x00, 0x01, 0x00, 0x00, 0x00,
  0x40, 0x00, 0x00, 0x00, 0x03, 0x00, 0x00, 0x00, 0x08, 0x00, 0x00, 0x00,
  0x0b, 0x00, 0x00, 0x00, 0x74, 0x66, 0x6c, 0x2e, 0x63, 0x6f, 0x6e, 0x76,
  0x5f, 0x32, 0x64, 0x00, 0x88, 0xd5, 0xff, 0xff, 0x7e, 0xd6, 0xff, 0xff,
  0x04, 0x00, 0x00, 0x00, 0x40, 0x00, 0x00, 0x00, 0xb5, 0x19, 0x64, 0x3f,
  0x46, 0xf9, 0xad, 0xbd, 0x09, 0xa1, 0x1e, 0x3f, 0xf2, 0x54, 0x0d, 0x3d,
  0xd2, 0x80, 0xa2, 0xbf, 0xed, 0x59, 0xb4, 0x3f, 0x89, 0x93, 0xd7, 0xbb,
  0xaa, 0x27, 0x52, 0xbf, 0xd8, 0xf0, 0x22, 0x3f, 0xda, 0x90, 0x0d, 0xbf,
  0x82, 0x41, 0xad, 0x3f, 0xcf, 0xdf, 0x44, 0xbf, 0x20, 0x2c, 0x76, 0xbf,
  0x78, 0xa0, 0x81, 0xbf, 0xd0, 0xc0, 0xc6, 0x3e, 0xbc, 0xbc, 0x09, 0x3f,
  0x26, 0xd6, 0xff, 0xff, 0x10, 0x00, 0x00, 0x00, 0x0a, 0x00, 0x00, 0x00,
  0x10, 0x00, 0x00, 0x00, 0x20, 0x00, 0x00, 0x00, 0x01, 0x00, 0x00, 0x00,
  0x10, 0x00, 0x00, 0x00, 0x0d, 0x00, 0x00, 0x00, 0x73, 0x74, 0x64, 0x2e,
  0x63, 0x6f, 0x6e, 0x73, 0x74, 0x61, 0x6e, 0x74, 0x31, 0x00, 0x00, 0x00,
  0x08, 0xd6, 0xff, 0xff, 0xfe, 0xd6, 0xff, 0xff, 0x04, 0x00, 0x00, 0x00,
  0x20, 0x00, 0x00, 0x00, 0x11, 0x6a, 0xcf, 0xbf, 0x8c, 0x46, 0x80, 0xbf,
  0xec, 0x2f, 0x59, 0xbf, 0x8f, 0xb2, 0x82, 0x3c, 0x46, 0xf7, 0x3c, 0xc0,
  0x0e, 0x65, 0x16, 0xc0, 0x1a, 0xd2, 0x48, 0xbf, 0x1e, 0x9f, 0x46, 0xbf,
  0x86, 0xd6, 0xff, 0xff, 0x10, 0x00, 0x00, 0x00, 0x09, 0x00, 0x00, 0x00,
  0x10, 0x00, 0x00, 0x00, 0x20, 0x00, 0x00, 0x00, 0x01, 0x00, 0x00, 0x00,
  0x08, 0x00, 0x00, 0x00, 0x0c, 0x00, 0x00, 0x00, 0x73, 0x74, 0x64, 0x2e,
  0x63, 0x6f, 0x6e, 0x73, 0x74, 0x61, 0x6e, 0x74, 0x00, 0x00, 0x00, 0x00,
  0x68, 0xd6, 0xff, 0xff, 0x5e, 0xd7, 0xff, 0xff, 0x04, 0x00, 0x00, 0x00,
  0x00, 0x08, 0x00, 0x00, 0x11, 0xb2, 0x3d, 0xbe, 0x1c, 0x71, 0x87, 0xbe,
  0x6a, 0x6b, 0xb8, 0x3e, 0xd4, 0xaf, 0xdb, 0x3d, 0x84, 0x64, 0x9f, 0x3d,
  0x8c, 0xef, 0x22, 0x3e, 0xc9, 0xea, 0x27, 0xbd, 0x51, 0x6a, 0x0c, 0x3e,
  0xf1, 0xe3, 0x89, 0xbe, 0x1e, 0x99, 0x82, 0xbe, 0x36, 0xa1, 0x16, 0x3e,
  0x00, 0x23, 0x34, 0xbd, 0x1a, 0xa7, 0x91, 0xbd, 0x52, 0xa9, 0xf1, 0xbc,
  0x45, 0xfc, 0xc0, 0x3d, 0xa1, 0x7e, 0x14, 0xbe, 0xd8, 0x0e, 0x86, 0xbe,
  0xb2, 0x94, 0x77, 0xbe, 0x0d, 0xb6, 0x53, 0x3d, 0x89, 0x31, 0x82, 0x3e,
  0xcc, 0x29, 0xd2, 0xbd, 0xf1, 0xbe, 0xae, 0x3e, 0xaa, 0x3a, 0xa1, 0x3e,
  0xbf, 0xb5, 0x43, 0xbd, 0xdb, 0x4b, 0x85, 0xbe, 0xb2, 0x37, 0x9d, 0xbe,
  0x06, 0x49, 0x37, 0x3e, 0xc4, 0xe2, 0x3d, 0xbd, 0xd8, 0x96, 0xa5, 0xbd,
  0x84, 0xfa, 0x65, 0xbe, 0x1e, 0x87, 0x6f, 0xbe, 0x07, 0x9a, 0x2b, 0xbe,
  0x93, 0x47, 0xf3, 0xbd, 0x83, 0xf5, 0x04, 0xbe, 0x67, 0xae, 0x24, 0x3f,
  0x48, 0xcd, 0x8c, 0x3e, 0xaa, 0x50, 0x38, 0xbd, 0x84, 0xa5, 0x66, 0xbe,
  0xe3, 0x08, 0xd5, 0xbe, 0x4a, 0x1d, 0xd9, 0xbd, 0x13, 0x2b, 0x96, 0xbd,
  0x41, 0x13, 0x1c, 0xbe, 0x40, 0x91, 0xce, 0x3e, 0x47, 0x63, 0x83, 0x3d,
  0x7f, 0xad, 0x56, 0xbe, 0x2c, 0x33, 0x76, 0xbe, 0xfe, 0x11, 0x4f, 0xbe,
  0xfc, 0x31, 0x61, 0x3d, 0xd2, 0x7b, 0xd1, 0x3d, 0x3e, 0xe7, 0xae, 0xbd,
  0x41, 0x10, 0xbf, 0x3d, 0xb7, 0x22, 0x8e, 0x3d, 0x66, 0x26, 0x77, 0xbe,
  0xda, 0x77, 0x88, 0xbe, 0xbf, 0x2a, 0xd7, 0x3d, 0x0c, 0xca, 0x1f, 0x3c,
  0x94, 0x17, 0xa9, 0x3d, 0x8f, 0x72, 0x43, 0x3e, 0x47, 0x10, 0x56, 0xbf,
  0xc3, 0xca, 0x28, 0xbf, 0xed, 0x2b, 0xe3, 0x3e, 0x4a, 0xeb, 0x36, 0xbe,
  0x35, 0x24, 0xc2, 0x3d, 0x0b, 0x22, 0xbf, 0xbe, 0xad, 0xe4, 0x90, 0xbd,
  0xc8, 0x55, 0xbf, 0xbc, 0x34, 0xd3, 0x27, 0xbe, 0x2c, 0xf6, 0xca, 0x3d,
  0x13, 0xb6, 0x80, 0x3d, 0x66, 0x84, 0x0e, 0xbe, 0x57, 0x67, 0xe1, 0xbd,
  0x06, 0x74, 0x3d, 0xbd, 0xee, 0xb7, 0xce, 0xbc, 0x90, 0x95, 0x92, 0xbd,
  0xc9, 0xa7, 0xd9, 0x3b, 0xf0, 0x29, 0x14, 0x3d, 0xd1, 0xf8, 0x34, 0xbe,
  0x14, 0x06, 0x1b, 0xbe, 0x43, 0xb5, 0x12, 0xbe, 0xe6, 0x28, 0x20, 0x3f,
  0x59, 0xab, 0xcc, 0x3c, 0xe0, 0x13, 0x72, 0x3a, 0x48, 0xdc, 0x15, 0x3e,
  0xe8, 0x95, 0x14, 0xbe, 0x33, 0xea, 0xc5, 0xbd, 0x9e, 0xfa, 0x1f, 0xbe,
  0x6d, 0x90, 0xcc, 0xbd, 0x12, 0xc4, 0x43, 0xbe, 0x11, 0x5c, 0x31, 0xbb,
  0x54, 0x2e, 0x01, 0x3d, 0x5e, 0x7f, 0xd0, 0xbd, 0x2d, 0x1a, 0xb9, 0xbe,
  0xd0, 0xb9, 0xe1, 0x3d, 0xb1, 0x37, 0x13, 0xbe, 0x86, 0xa9, 0x5f, 0xbc,
  0xdb, 0xa5, 0x85, 0xbe, 0x30, 0xc9, 0xa8, 0x3e, 0xe1, 0x9f, 0x88, 0x3b,
  0xfd, 0x15, 0xca, 0x3e, 0x8b, 0x91, 0x4d, 0x3e, 0xe8, 0xb7, 0xdb, 0xbd,
  0xd5, 0xac, 0x67, 0x3d, 0x7e, 0x98, 0x33, 0xbc, 0xf7, 0xc8, 0x78, 0x3e,
  0x48, 0x31, 0xf1, 0xbc, 0xdf, 0x06, 0x29, 0x3e, 0x9a, 0x0e, 0xb6, 0xbe,
  0xbe, 0x44, 0x4d, 0xbf, 0xee, 0x57, 0x94, 0x3e, 0x0b, 0xe6, 0x7f, 0xbe,
  0xad, 0x6e, 0x06, 0xbe, 0x70, 0x5c, 0x1b, 0xbf, 0x40, 0xa6, 0x8e, 0x3d,
  0x2f, 0x42, 0x19, 0x3d, 0x3e, 0xe4, 0x5c, 0xbd, 0x90, 0x0d, 0x25, 0xbf,
  0x1a, 0xdf, 0xc6, 0x3c, 0xd2, 0x41, 0x92, 0xbd, 0x60, 0x95, 0x3a, 0xbe,
  0xe6, 0xbc, 0xb6, 0xbf, 0x11, 0xdb, 0xd7, 0xbd, 0xd2, 0x2b, 0x46, 0x3d,
  0x08, 0xfb, 0xe9, 0xbd, 0x13, 0xce, 0x35, 0x3e, 0xa8, 0xc8, 0x7b, 0xbd,
  0x2f, 0xdb, 0xb4, 0xbd, 0x67, 0xff, 0x69, 0xbe, 0xc4, 0x36, 0xd1, 0xbe,
  0xa4, 0xd5, 0x8d, 0xbe, 0x88, 0xf3, 0x2d, 0x3c, 0xfa, 0xff, 0x3f, 0x3e,
  0xdc, 0x99, 0x26, 0xbf, 0xc7, 0xff, 0x46, 0xbc, 0x84, 0x00, 0x3f, 0xbf,
  0x5e, 0xd7, 0x72, 0xbe, 0x3c, 0x92, 0x1b, 0xbe, 0x97, 0xe3, 0x11, 0x3c,
  0xac, 0xd5, 0x99, 0xbd, 0x6b, 0x0d, 0xa4, 0x3e, 0x61, 0x84, 0x71, 0xbf,
  0xac, 0x3f, 0x8d, 0x3e, 0xf7, 0x7c, 0x9d, 0xbe, 0xac, 0x5f, 0x8b, 0xbd,
  0x21, 0x8f, 0x5e, 0xbf, 0x43, 0x55, 0x51, 0x3e, 0x97, 0x79, 0xf6, 0xbd,
  0x38, 0x5d, 0x95, 0x3e, 0xd1, 0x0a, 0x5d, 0xbf, 0xcb, 0x53, 0x14, 0x3e,
  0x72, 0x91, 0x8c, 0x3e, 0x52, 0xdb, 0xa2, 0xbd, 0x24, 0xc8, 0xc6, 0xbd,
  0xba, 0x4d, 0x46, 0x3e, 0xfe, 0xed, 0xd4, 0xbd, 0x4d, 0xca, 0x9e, 0x3e,
  0x4a, 0x91, 0x20, 0xbe, 0x77, 0xf3, 0x23, 0xbe, 0x14, 0xfd, 0x88, 0x3e,
  0x89, 0x4c, 0x52, 0xbe, 0xce, 0xad, 0x94, 0x3d, 0x50, 0x27, 0x56, 0xbd,
  0x62, 0xb2, 0xaa, 0xbd, 0xcc, 0x80, 0x79, 0x3e, 0x7e, 0xa4, 0xa1, 0x3d,
  0xd2, 0xfd, 0x9c, 0xbe, 0x09, 0x54, 0x5b, 0xbe, 0x99, 0xf2, 0x17, 0x3c,
  0xec, 0x73, 0x29, 0x3e, 0x5f, 0x83, 0x69, 0xbd, 0xc5, 0x57, 0xa8, 0x3c,
  0x8f, 0xc6, 0xbf, 0xbd, 0x6b, 0x60, 0xe7, 0xbd, 0xd5, 0xd3, 0x36, 0x3e,
  0xfd, 0x45, 0x3d, 0xbe, 0x81, 0xba, 0xca, 0xbd, 0xd2, 0x4a, 0xcf, 0xbd,
  0x69, 0xaa, 0xee, 0xbb, 0xb6, 0x57, 0xf5, 0x3b, 0xb9, 0x0f, 0xc7, 0x3d,
  0x03, 0xf5, 0x43, 0xbd, 0x72, 0xa9, 0x8c, 0xbd, 0x52, 0x0d, 0x39, 0xbe,
  0x67, 0x7f, 0x5f, 0xbe, 0x4f, 0xb4, 0x06, 0xbf, 0x2c, 0x79, 0x33, 0xbe,
  0x45, 0xb0, 0x7a, 0xbe, 0x2a, 0x3d, 0xa0, 0x3d, 0x25, 0x4a, 0x14, 0xbf,
  0x21, 0x41, 0xe6, 0xbd, 0x22, 0x2c, 0x24, 0xbe, 0x61, 0xb9, 0x1c, 0xbe,
  0xf4, 0x14, 0xed, 0xbe, 0x5f, 0x35, 0xd2, 0xbc, 0x3c, 0xc6, 0xf2, 0x3c,
  0xbb, 0x08, 0x37, 0x3e, 0x3b, 0xa2, 0x66, 0xbf, 0x7b, 0xd8, 0x89, 0x3e,
  0x17, 0x7d, 0x56, 0x3d, 0x4e, 0xb6, 0x5f, 0xbe, 0xa4, 0xcb, 0x81, 0xbf,
  0x97, 0xd6, 0x0c, 0x3d, 0xef, 0xd5, 0x65, 0x3d, 0x11, 0x88, 0xbd, 0x3d,
  0xa0, 0x11, 0xc0, 0xbd, 0x92, 0x4d, 0x04, 0xbe, 0xf2, 0x04, 0xf0, 0x3d,
  0x97, 0x32, 0x2c, 0xbe, 0x8c, 0x0d, 0xa9, 0x3d, 0x01, 0x0e, 0x20, 0xbf,
  0x56, 0x4e, 0x31, 0xbc, 0xeb, 0x53, 0x63, 0xbf, 0x85, 0x33, 0x75, 0xbe,
  0x79, 0x16, 0x8c, 0x3d, 0x38, 0xf7, 0x70, 0xbf, 0x3b, 0x57, 0x0b, 0xbe,
  0xde, 0xd9, 0x60, 0xbe, 0xfa, 0x74, 0x07, 0xbf, 0xa2, 0xda, 0xdc, 0xbc,
  0xa5, 0xdc, 0x31, 0xbf, 0x6f, 0x64, 0x37, 0xbf, 0xe1, 0xbe, 0x01, 0x3e,
  0x42, 0x4b, 0x7a, 0xbf, 0x9a, 0x9d, 0x96, 0x3d, 0x38, 0x20, 0x6c, 0xbe,
  0x36, 0x28, 0xb2, 0xbd, 0x24, 0x07, 0x3d, 0xbe, 0xfe, 0xc4, 0x30, 0xbc,
  0xf0, 0x90, 0xce, 0xbe, 0x83, 0x6e, 0xf4, 0x3d, 0xe1, 0x11, 0xac, 0x3d,
  0xab, 0xc6, 0x6b, 0x3b, 0x72, 0xfd, 0x68, 0xbe, 0x27, 0x98, 0x59, 0x3c,
  0x6d, 0xbb, 0x59, 0xbe, 0x32, 0x5b, 0xc7, 0xbc, 0x49, 0xf6, 0x07, 0xbe,
  0x33, 0xa9, 0x08, 0xbe, 0xb0, 0x40, 0x5b, 0x3e, 0xc8, 0xd0, 0xac, 0xbc,
  0x91, 0x3d, 0xd3, 0xbd, 0x8e, 0x5f, 0xe1, 0xbc, 0x63, 0x0d, 0x56, 0xbe,
  0x4e, 0x6b, 0x0c, 0xbe, 0xb3, 0xa9, 0x7a, 0xbd, 0x01, 0x0d, 0x5b, 0x3e,
  0x6b, 0xce, 0x51, 0x3b, 0x6e, 0x55, 0x93, 0xbd, 0xcb, 0x7d, 0x48, 0xbd,
  0x68, 0x8f, 0x21, 0xbd, 0x44, 0x30, 0x26, 0xbe, 0x5e, 0xb0, 0xe7, 0xbd,
  0xc6, 0x2a, 0x66, 0x3e, 0x2b, 0xa6, 0xd2, 0xbd, 0x8f, 0xa2, 0x20, 0xbc,
  0x53, 0x53, 0x69, 0x3d, 0xf2, 0x60, 0x10, 0x3f, 0x09, 0xba, 0x0b, 0xbe,
  0xfa, 0x53, 0x80, 0xbe, 0x6c, 0xc3, 0xbf, 0xbe, 0x7a, 0xf9, 0x16, 0xbf,
  0xe2, 0x19, 0xdd, 0xbd, 0xfa, 0xc1, 0x50, 0xbe, 0x18, 0x0e, 0x8a, 0xbe,
  0x84, 0x85, 0xca, 0xbd, 0x5d, 0xc7, 0x44, 0xbd, 0x32, 0x98, 0xd8, 0xbd,
  0x9e, 0xf4, 0x09, 0xbe, 0x7e, 0x37, 0x15, 0xbf, 0xd4, 0xc7, 0x00, 0x3e,
  0x3b, 0x8b, 0x06, 0x3e, 0x69, 0x4a, 0x65, 0x3e, 0x76, 0x8f, 0xf8, 0x3d,
  0x1b, 0x83, 0x5c, 0x3b, 0xd9, 0x4f, 0xc9, 0xbd, 0xc6, 0x9e, 0x30, 0x3d,
  0xe1, 0x7b, 0x17, 0xbf, 0x46, 0x8c, 0x36, 0x3e, 0x76, 0x3c, 0xb3, 0x3d,
  0xb4, 0x96, 0x77, 0x3c, 0xef, 0xf2, 0xce, 0x3e, 0xf3, 0x3f, 0x09, 0xbd,
  0x96, 0x5b, 0xda, 0xbd, 0x10, 0xf8, 0x33, 0xbd, 0xb9, 0x64, 0x3b, 0xbf,
  0x1d, 0x83, 0x33, 0x3e, 0xf8, 0xbe, 0xe1, 0xbd, 0xa9, 0xf8, 0x1b, 0xbd,
  0x95, 0x13, 0x14, 0xbe, 0xde, 0xaa, 0xbd, 0xbe, 0x55, 0x32, 0x5b, 0xbe,
  0x96, 0xb2, 0x4a, 0xbe, 0x81, 0x6a, 0xe1, 0xbe, 0x52, 0x31, 0x0b, 0x3c,
  0x9b, 0xf7, 0xe0, 0xbe, 0xd0, 0x99, 0x83, 0xbe, 0xe6, 0xcc, 0x9b, 0xbe,
  0x6a, 0xb4, 0x8c, 0xbd, 0xbf, 0xf5, 0xa4, 0xbe, 0x4d, 0x92, 0x9c, 0x3e,
  0x73, 0xf5, 0xd5, 0x3d, 0xd2, 0x42, 0x7b, 0x3d, 0xaf, 0x99, 0x42, 0xbd,
  0xc2, 0x4b, 0x5e, 0x3e, 0x94, 0x74, 0x92, 0x3e, 0x3c, 0x7f, 0xb4, 0xbd,
  0x0a, 0x77, 0xc3, 0xbe, 0x01, 0x83, 0x88, 0x3d, 0x05, 0x87, 0x4f, 0x3e,
  0xc0, 0xe8, 0x5b, 0x3e, 0x9b, 0x6d, 0x9d, 0xbb, 0xa7, 0xe8, 0x5e, 0xbd,
  0x3c, 0x4f, 0xf7, 0x3d, 0xc4, 0x7b, 0xa1, 0xbd, 0x64, 0x72, 0xbb, 0xbe,
  0xde, 0x52, 0x6a, 0x3e, 0x95, 0xde, 0x00, 0x3e, 0x02, 0x0c, 0xce, 0x3d,
  0x48, 0x51, 0xa3, 0x3d, 0x7f, 0xa2, 0x0d, 0x3d, 0xa3, 0x2e, 0xfa, 0xbb,
  0x2f, 0x23, 0x85, 0xbe, 0x82, 0x02, 0x89, 0xbd, 0xc8, 0xdf, 0xf2, 0x3e,
  0x1a, 0xeb, 0x21, 0x3e, 0x4e, 0x30, 0x71, 0xbd, 0x79, 0xca, 0xd7, 0xbe,
  0x2e, 0xd7, 0xd4, 0x3e, 0x54, 0xb6, 0x44, 0xbe, 0x05, 0x45, 0x00, 0xbd,
  0x9e, 0xe8, 0xe4, 0xbd, 0x53, 0x5b, 0x80, 0x3e, 0x48, 0x19, 0xca, 0x3d,
  0xad, 0xd5, 0x25, 0xbd, 0x0e, 0x1c, 0x7c, 0xbe, 0xbb, 0xae, 0x34, 0xbe,
  0x34, 0x8a, 0x18, 0xbe, 0x49, 0xed, 0x7b, 0x3c, 0xab, 0x2b, 0x00, 0xbe,
  0x11, 0xa7, 0x95, 0x3e, 0x7f, 0xa4, 0x65, 0xbd, 0x6c, 0x57, 0xd1, 0xbc,
  0xa3, 0xa7, 0x64, 0x3e, 0xeb, 0xf8, 0x58, 0xbd, 0xa3, 0x04, 0xa1, 0xbd,
  0xaa, 0xb5, 0x54, 0x3e, 0x64, 0x17, 0xe4, 0xbd, 0xc2, 0x6f, 0xb9, 0x3d,
  0x43, 0xea, 0x62, 0xbe, 0x5a, 0x72, 0xaa, 0xbd, 0x45, 0x61, 0xe8, 0x3e,
  0x68, 0x1a, 0xe2, 0xbb, 0x19, 0x09, 0x49, 0xbd, 0xc2, 0xb6, 0x07, 0xbd,
  0x75, 0x63, 0xb8, 0x3b, 0xb1, 0x55, 0x2a, 0x3d, 0x9c, 0x97, 0xf8, 0xbe,
  0x86, 0x3c, 0x49, 0x3f, 0x49, 0x87, 0x1b, 0xbe, 0x96, 0xc1, 0x0a, 0xbe,
  0x47, 0x2c, 0xb0, 0xbe, 0xc2, 0x23, 0x23, 0xbd, 0xc4, 0x71, 0x7d, 0xba,
  0x2e, 0x1e, 0xd4, 0xbd, 0xd1, 0x14, 0xda, 0xbe, 0x4c, 0xa1, 0x16, 0xbe,
  0x20, 0xd2, 0xa6, 0x3d, 0xbc, 0xf7, 0x91, 0xbe, 0x13, 0x83, 0xa5, 0xbe,
  0x68, 0x88, 0x85, 0x3d, 0x7f, 0xbd, 0xa4, 0x3c, 0xb1, 0xfb, 0x1b, 0x3c,
  0xcc, 0xda, 0x03, 0xbd, 0x7f, 0x20, 0x25, 0xbe, 0x23, 0x39, 0x12, 0x3e,
  0x5c, 0xce, 0x8a, 0xbe, 0x8f, 0xa0, 0x13, 0xbe, 0xd8, 0x9a, 0x88, 0xbd,
  0xbb, 0x18, 0x1d, 0x3b, 0x72, 0x39, 0xab, 0xbd, 0x54, 0x7a, 0x79, 0x3e,
  0x65, 0x31, 0x95, 0xbe, 0x18, 0x38, 0x72, 0xbd, 0xaa, 0x3d, 0x30, 0xbe,
  0xb1, 0x8f, 0x06, 0x3f, 0x0b, 0x8e, 0x56, 0xbe, 0x77, 0x14, 0x93, 0xbe,
  0x9c, 0x75, 0x98, 0x3e, 0xd3, 0xf1, 0x24, 0x3c, 0x3e, 0xdb, 0x84, 0x3d,
  0x11, 0xb9, 0x47, 0x3e, 0xe0, 0x42, 0x22, 0xba, 0x08, 0x16, 0x5e, 0x3b,
  0xb6, 0x26, 0xae, 0xbe, 0xf7, 0x58, 0x8d, 0xbe, 0x56, 0xc9, 0x27, 0x3d,
  0x67, 0x34, 0xc7, 0xbe, 0xea, 0xa1, 0x54, 0x3e, 0xb8, 0xb6, 0x2d, 0x3e,
  0x25, 0xc8, 0x3b, 0x3d, 0x57, 0x20, 0xcd, 0x3b, 0xa1, 0x39, 0xac, 0xbe,
  0xe2, 0xda, 0x91, 0xbe, 0x43, 0xd9, 0xcb, 0x3e, 0xd9, 0xd3, 0x9f, 0xbd,
  0x01, 0x0b, 0xa8, 0x3e, 0xfc, 0x8e, 0x4c, 0xbd, 0x7f, 0xdd, 0xe5, 0x3c,
  0xac, 0x51, 0xa7, 0xbe, 0x6b, 0x33, 0x8f, 0xbe, 0xb8, 0x1c, 0xc2, 0xbe,
  0xf1, 0x43, 0x59, 0x3e, 0x90, 0x21, 0x04, 0x3e, 0x40, 0xc5, 0x54, 0xbe,
  0x1e, 0x3c, 0x37, 0x3d, 0x18, 0x0c, 0x73, 0x3c, 0x53, 0x8e, 0x67, 0x3e,
  0x95, 0xb6, 0xae, 0xbe, 0x5e, 0x81, 0xb8, 0xbe, 0xfd, 0x1e, 0xa8, 0x3e,
  0x9f, 0xab, 0x18, 0xbe, 0x3f, 0xb0, 0x96, 0x3e, 0x3f, 0xfc, 0xf7, 0xbd,
  0xd7, 0x17, 0xa6, 0xbd, 0x73, 0xdb, 0x79, 0xbe, 0x28, 0xc6, 0x59, 0xbe,
  0xaf, 0xb1, 0xcd, 0xbe, 0xba, 0xcb, 0x19, 0x3e, 0xa5, 0x43, 0x9d, 0xbd,
  0x66, 0x5f, 0x89, 0xbd, 0x7c, 0x39, 0x9b, 0xbb, 0x46, 0xe4, 0xc6, 0x3e,
  0x9a, 0x79, 0xfc, 0xbd, 0x2f, 0x0e, 0x2a, 0xbe, 0x9b, 0xac, 0xe0, 0xbe,
  0x5c, 0xc0, 0x03, 0x3e, 0xb1, 0x21, 0x63, 0x3e, 0xa3, 0xc9, 0x51, 0xbe,
  0x29, 0x31, 0x8e, 0xbd, 0xa2, 0x66, 0x1b, 0xbb, 0xb9, 0xfc, 0xfd, 0x3e,
  0x6e, 0x74, 0x3b, 0xbe, 0xbe, 0xee, 0xc1, 0xbe, 0x96, 0x6e, 0x9e, 0x3e,
  0x6b, 0xb7, 0xbd, 0xbd, 0x12, 0x5a, 0x29, 0xbe, 0xd3, 0xd8, 0xa1, 0xbd,
  0xda, 0xf5, 0x35, 0xbe, 0x0e, 0x38, 0xd4, 0xbd, 0x90, 0xb3, 0x92, 0xbd,
  0xb8, 0x33, 0xe1, 0xbd, 0x74, 0xbd, 0xc2, 0xbb, 0x0a, 0xde, 0xca, 0x3c,
  0x75, 0x6f, 0xfa, 0xbd, 0x4a, 0x55, 0x44, 0xbe, 0x18, 0x46, 0x51, 0xbe,
  0x6a, 0x9d, 0xb1, 0xbd, 0xc7, 0x5d, 0xb7, 0xbd, 0xf4, 0xe9, 0x04, 0x3e,
  0xf8, 0x66, 0xcb, 0x3e, 0x2c, 0x16, 0x87, 0x3d, 0xb7, 0x79, 0x69, 0xbe,
  0x38, 0xae, 0x99, 0xbc, 0x32, 0x30, 0x60, 0x3e, 0x8e, 0x16, 0xb5, 0xbc,
  0xbe, 0x94, 0xbc, 0x3b, 0x60, 0x5b, 0x38, 0xbd, 0x11, 0x38, 0x01, 0x3f,
  0xf3, 0xbc, 0x9a, 0xbb, 0x4c, 0x39, 0xe3, 0xbc, 0x6b, 0xfd, 0x9c, 0xbd,
  0x74, 0xca, 0xff, 0x3d, 0x73, 0x15, 0xf1, 0xbd, 0xac, 0xc5, 0xc5, 0x3b,
  0x28, 0x55, 0x06, 0x3e, 0xc3, 0x9a, 0xa2, 0x3e, 0x76, 0x91, 0x34, 0x3d,
  0x50, 0x06, 0x29, 0xbe, 0xdc, 0xbd, 0x09, 0xbe, 0xb8, 0xef, 0xd2, 0xbc,
  0x83, 0xaf, 0xe8, 0xbd, 0x51, 0xc6, 0x51, 0xbd, 0x8d, 0x15, 0x08, 0xbd,
  0x7f, 0xec, 0x8f, 0xbd, 0x13, 0x99, 0x95, 0xbf, 0xb5, 0x0e, 0xba, 0x3d,
  0x2f, 0x2a, 0xbb, 0x3d, 0x46, 0x0f, 0x84, 0xbe, 0x0d, 0xba, 0x8a, 0xbe,
  0x1d, 0xa9, 0x5b, 0x3b, 0xe0, 0x36, 0x86, 0xbd, 0x33, 0x0b, 0x3c, 0x3b,
  0x1a, 0x3c, 0x2f, 0xbf, 0x61, 0x94, 0x02, 0x3e, 0xac, 0xa2, 0x8e, 0x3d,
  0xed, 0x30, 0x8c, 0x3e, 0x33, 0xee, 0x6e, 0x3c, 0x27, 0xb9, 0xfe, 0xbd,
  0x85, 0x8c, 0xbc, 0xbd, 0x3a, 0xaa, 0xe1, 0xbe, 0x66, 0xd2, 0x81, 0xbf,
  0x7b, 0x76, 0x7b, 0xbd, 0x4d, 0x7b, 0xb7, 0x3d, 0x9c, 0x8f, 0x0b, 0x3b,
  0x9f, 0xd1, 0x17, 0x3e, 0xab, 0xf0, 0x19, 0xbe, 0xc8, 0x03, 0xcb, 0xbd,
  0x53, 0xb2, 0xc4, 0xbc, 0xe5, 0x4e, 0x52, 0xbf, 0x16, 0x10, 0x37, 0xbd,
  0x4a, 0xfd, 0xec, 0xbd, 0xfc, 0x50, 0x25, 0xbd, 0x95, 0xfd, 0x5f, 0x3d,
  0xc6, 0xde, 0xff, 0xff, 0x10, 0x00, 0x00, 0x00, 0x08, 0x00, 0x00, 0x00,
  0x1c, 0x00, 0x00, 0x00, 0x38, 0x00, 0x00, 0x00, 0x04, 0x00, 0x00, 0x00,
  0x10, 0x00, 0x00, 0x00, 0x04, 0x00, 0x00, 0x00, 0x01, 0x00, 0x00, 0x00,
  0x08, 0x00, 0x00, 0x00, 0x1a, 0x00, 0x00, 0x00, 0x73, 0x65, 0x71, 0x75,
  0x65, 0x6e, 0x74, 0x69, 0x61, 0x6c, 0x2f, 0x63, 0x6f, 0x6e, 0x76, 0x32,
  0x64, 0x5f, 0x31, 0x2f, 0x43, 0x6f, 0x6e, 0x76, 0x32, 0x44, 0x00, 0x00,
  0xc0, 0xde, 0xff, 0xff, 0xb6, 0xdf, 0xff, 0xff, 0x04, 0x00, 0x00, 0x00,
  0x80, 0x01, 0x00, 0x00, 0xe8, 0x82, 0x15, 0xbe, 0xda, 0x5c, 0x20, 0xbe,
  0x71, 0x20, 0xf4, 0xbc, 0x29, 0xdd, 0x24, 0xbe, 0xef, 0x1b, 0xdb, 0x3a,
  0x70, 0x3c, 0x1a, 0xbd, 0x2d, 0x1a, 0x4a, 0xbd, 0x57, 0x72, 0xa9, 0xbd,
  0xf5, 0x2a, 0xc5, 0x3d, 0xb3, 0x8b, 0x09, 0xbd, 0xa8, 0x10, 0xa3, 0x3c,
  0x22, 0xe9, 0x0c, 0x3d, 0xa9, 0xc4, 0x08, 0xbd, 0xdf, 0x2b, 0xbf, 0xba,
  0xd9, 0xd1, 0x41, 0xbd, 0x35, 0x76, 0x2f, 0x3d, 0xce, 0xa4, 0x60, 0xbd,
  0xaf, 0x97, 0x38, 0x3e, 0x79, 0xa5, 0x12, 0xbd, 0xf7, 0xce, 0x9f, 0x3d,
  0xc0, 0x86, 0xca, 0xbd, 0x00, 0x74, 0xd8, 0x3d, 0x74, 0x5f, 0x72, 0x3c,
  0xbf, 0x90, 0x47, 0x3e, 0xca, 0xc9, 0xef, 0x3c, 0x0c, 0xe6, 0x44, 0x3e,
  0x8a, 0x9b, 0xcd, 0x3d, 0x29, 0x23, 0xd0, 0xbe, 0xe0, 0x51, 0xab, 0x3e,
  0x2e, 0x30, 0x8e, 0xbe, 0xf1, 0x62, 0x37, 0xbd, 0x47, 0x96, 0x9c, 0xbe,
  0x82, 0x9d, 0x3a, 0xbd, 0x78, 0xe6, 0x90, 0x3e, 0x47, 0xac, 0x9b, 0xbe,
  0xf6, 0x93, 0xbf, 0x3d, 0xfb, 0x41, 0x8e, 0xbe, 0x60, 0x5b, 0x85, 0x3e,
  0x43, 0x36, 0x9b, 0xbe, 0xe3, 0x47, 0x57, 0xbe, 0xf5, 0xb3, 0xf2, 0x3d,
  0x0e, 0x32, 0x92, 0x3d, 0x7f, 0xdf, 0xc9, 0x3d, 0x42, 0xd5, 0x96, 0xbe,
  0xa0, 0x19, 0xd6, 0xbe, 0x69, 0x37, 0x35, 0xbe, 0x1c, 0x8b, 0xb1, 0xbd,
  0xfb, 0x82, 0x69, 0xbd, 0xeb, 0xb0, 0x65, 0x3e, 0xef, 0x1b, 0xd8, 0x3d,
  0xa3, 0x7d, 0x1d, 0xbd, 0x26, 0x8d, 0x82, 0x3e, 0x20, 0x0a, 0x39, 0x3d,
  0xa6, 0xbd, 0xea, 0xbc, 0x4a, 0x24, 0x52, 0x3e, 0xff, 0x60, 0x9e, 0x3c,
  0xcc, 0x6a, 0x2c, 0xbc, 0x8a, 0xcf, 0x14, 0xbb, 0xbf, 0xf7, 0x25, 0xbe,
  0xc2, 0x73, 0x6f, 0xbd, 0xe1, 0x07, 0x56, 0x3e, 0x7b, 0x7c, 0xb4, 0xbe,
  0xe1, 0xaf, 0xe0, 0x3d, 0x49, 0x63, 0x16, 0x3e, 0x05, 0x51, 0x91, 0xbe,
  0x17, 0x06, 0x60, 0x3d, 0xaf, 0x29, 0x8f, 0x3e, 0xfa, 0x67, 0x7d, 0x3d,
  0x2f, 0x80, 0x25, 0xbe, 0x21, 0xb7, 0x9a, 0x3d, 0xad, 0x43, 0x62, 0x3e,
  0x86, 0xb9, 0x1f, 0xbe, 0x3d, 0xeb, 0x9b, 0xbe, 0x01, 0xb0, 0x9c, 0xbd,
  0xb9, 0x74, 0x93, 0xbd, 0x0d, 0x86, 0xb2, 0x3e, 0x4b, 0x4a, 0x32, 0xbb,
  0x09, 0xaa, 0xf9, 0xbc, 0xc4, 0x3f, 0xdd, 0x3e, 0x31, 0xe2, 0x29, 0xbe,
  0x8d, 0xf0, 0x8b, 0x3d, 0x44, 0x92, 0x2b, 0x3e, 0xcc, 0x3d, 0x56, 0x3d,
  0x5a, 0xee, 0xe2, 0x3d, 0xb4, 0xf6, 0x00, 0xbf, 0x08, 0x97, 0x58, 0xbd,
  0x7a, 0x18, 0xbb, 0xbe, 0x64, 0x50, 0xf0, 0xbe, 0xb4, 0x6b, 0x08, 0xbe,
  0x02, 0x4d, 0xa3, 0xbe, 0xba, 0xe5, 0xa8, 0xbe, 0x8c, 0x42, 0xaa, 0x3d,
  0x14, 0x75, 0xca, 0x3c, 0x2b, 0x17, 0xd9, 0x3b, 0xca, 0xd4, 0xc5, 0x3c,
  0x2d, 0xc9, 0xab, 0xbd, 0x9e, 0xe0, 0xff, 0xff, 0x10, 0x00, 0x00, 0x00,
  0x07, 0x00, 0x00, 0x00, 0x1c, 0x00, 0x00, 0x00, 0x38, 0x00, 0x00, 0x00,
  0x04, 0x00, 0x00, 0x00, 0x08, 0x00, 0x00, 0x00, 0x04, 0x00, 0x00, 0x00,
  0x03, 0x00, 0x00, 0x00, 0x01, 0x00, 0x00, 0x00, 0x18, 0x00, 0x00, 0x00,
  0x73, 0x65, 0x71, 0x75, 0x65, 0x6e, 0x74, 0x69, 0x61, 0x6c, 0x2f, 0x63,
  0x6f, 0x6e, 0x76, 0x32, 0x64, 0x2f, 0x43, 0x6f, 0x6e, 0x76, 0x32, 0x44,
  0x00, 0x00, 0x00, 0x00, 0x98, 0xe0, 0xff, 0xff, 0x8e, 0xe1, 0xff, 0xff,
  0x04, 0x00, 0x00, 0x00, 0x00, 0x01, 0x00, 0x00, 0x8b, 0xd7, 0x34, 0x3e,
  0x89, 0x24, 0x70, 0x3e, 0xaa, 0xec, 0x28, 0xbe, 0x4a, 0x10, 0xaf, 0x3d,
  0xb7, 0x38, 0xb1, 0x3d, 0xfd, 0xd0, 0xa1, 0xbc, 0x70, 0x36, 0xbf, 0xbd,
  0x6b, 0x1a, 0xc4, 0xbe, 0xe0, 0xaf, 0xc1, 0xbe, 0x75, 0xd7, 0x26, 0x3d,
  0x4b, 0xf7, 0xd6, 0xbe, 0xc7, 0x98, 0x87, 0xbe, 0x90, 0x15, 0x49, 0x3e,
  0x9e, 0xca, 0x72, 0xbe, 0xca, 0x8f, 0xcc, 0x3e, 0xb2, 0xb0, 0x9e, 0xbe,
  0x59, 0xd4, 0x30, 0x3e, 0x1b, 0x63, 0x9e, 0x3e, 0xa3, 0xb8, 0x23, 0xbe,
  0xe1, 0xcb, 0xd6, 0xbe, 0xe0, 0x05, 0x16, 0x3e, 0x12, 0xbc, 0xc2, 0x3c,
  0x94, 0x36, 0xe1, 0xbc, 0x28, 0xfe, 0x03, 0xbf, 0x68, 0x2c, 0x57, 0x3e,
  0xf7, 0x5e, 0x60, 0x3d, 0xb2, 0x10, 0xde, 0xbe, 0xb7, 0xf3, 0xda, 0xbe,
  0xce, 0xea, 0xd5, 0xbe, 0xbb, 0x2e, 0x57, 0x3d, 0x22, 0xa1, 0x24, 0xbf,
  0x55, 0xf6, 0xb0, 0xbe, 0x37, 0xc7, 0x46, 0x3e, 0x0f, 0x53, 0x8e, 0x3e,
  0x37, 0x85, 0x1d, 0xbe, 0x6f, 0xc1, 0x93, 0x3d, 0x8e, 0x08, 0xc8, 0x3d,
  0x24, 0xff, 0xe8, 0x3b, 0xd5, 0x3b, 0xae, 0xbd, 0x14, 0x3b, 0x59, 0xbd,
  0xc8, 0x1d, 0xad, 0xbd, 0x7b, 0x19, 0x04, 0x3e, 0xc9, 0x12, 0xa4, 0xbe,
  0xbd, 0x80, 0xcf, 0xbe, 0x71, 0x9f, 0x66, 0x3e, 0x78, 0x12, 0x0e, 0xbd,
  0xaf, 0x96, 0x28, 0xbf, 0xa4, 0xbb, 0x87, 0xbe, 0xbe, 0x66, 0x7b, 0x3e,
  0xc4, 0xd4, 0x9e, 0x3e, 0xa4, 0xcb, 0x09, 0xbe, 0x18, 0x88, 0xed, 0xbe,
  0xd2, 0xe2, 0xd0, 0x3d, 0xfa, 0x83, 0x1a, 0x3d, 0x4e, 0x34, 0x8d, 0xbd,
  0xe6, 0x07, 0x89, 0xbe, 0xa1, 0x1c, 0x83, 0xbe, 0x3c, 0xd8, 0xe6, 0x3d,
  0x73, 0xf8, 0xc0, 0xbe, 0x80, 0x3f, 0xa6, 0xbe, 0x60, 0x96, 0xf2, 0xbd,
  0xd3, 0xf6, 0x07, 0x3e, 0x1e, 0x8f, 0xb3, 0xbe, 0x06, 0x16, 0x98, 0xbe,
  0xf6, 0xe1, 0xff, 0xff, 0x10, 0x00, 0x00, 0x00, 0x06, 0x00, 0x00, 0x00,
  0x14, 0x00, 0x00, 0x00, 0x30, 0x00, 0x00, 0x00, 0x02, 0x00, 0x00, 0x00,
  0x04, 0x00, 0x00, 0x00, 0x10, 0x00, 0x00, 0x00, 0x19, 0x00, 0x00, 0x00,
  0x73, 0x65, 0x71, 0x75, 0x65, 0x6e, 0x74, 0x69, 0x61, 0x6c, 0x2f, 0x64,
  0x65, 0x6e, 0x73, 0x65, 0x5f, 0x31, 0x2f, 0x4d, 0x61, 0x74, 0x4d, 0x75,
  0x6c, 0x00, 0x00, 0x00, 0xe8, 0xe1, 0xff, 0xff, 0xde, 0xe2, 0xff, 0xff,
  0x04, 0x00, 0x00, 0x00, 0x00, 0x1c, 0x00, 0x00, 0x1c, 0x7f, 0xc7, 0x3e,
  0xd6, 0xbf, 0xc7, 0xbc, 0x6d, 0x00, 0x65, 0x3e, 0xbc, 0x05, 0x94, 0xbd,
  0x8e, 0xf9, 0x88, 0xbd, 0xb0, 0x6d, 0x7f, 0x3e, 0x0b, 0xf6, 0x2c, 0x3f,
  0xf2, 0xe8, 0xb8, 0xba, 0x5a, 0xb5, 0x92, 0x3e, 0xd9, 0xb8, 0x86, 0x3d,
  0xe2, 0x31, 0x07, 0xbe, 0x8d, 0x15, 0xf8, 0xbd, 0x35, 0x25, 0x6b, 0x3e,
  0x20, 0x77, 0x56, 0x3e, 0x13, 0xd6, 0xa0, 0x3d, 0x4c, 0x72, 0xd4, 0x3e,
  0x39, 0xcc, 0xee, 0x3e, 0x99, 0xa7, 0x1f, 0x3d, 0x49, 0xa5, 0xf1, 0x3d,
  0x5b, 0x72, 0x0c, 0xbe, 0x00, 0x36, 0x2a, 0xbf, 0x13, 0xed, 0x35, 0xbe,
  0x47, 0xd4, 0xc5, 0x3e, 0xc6, 0x33, 0x2d, 0xbd, 0x66, 0x2e, 0xea, 0xbd,
  0x13, 0xa5, 0xc8, 0xbc, 0x7d, 0x7a, 0x89, 0xbe, 0x8b, 0xb7, 0x70, 0xbe,
  0x91, 0x83, 0x3a, 0x3e, 0x4a, 0xec, 0xee, 0x3e, 0xc9, 0x95, 0x77, 0xbc,
  0xcb, 0x49, 0xa2, 0xbd, 0x93, 0xc0, 0x84, 0x3e, 0x34, 0x92, 0x81, 0xbd,
  0xd2, 0x06, 0x4c, 0x3c, 0x34, 0xff, 0x45, 0xbe, 0x11, 0xb9, 0xcf, 0xbe,
  0x95, 0x7e, 0x02, 0x3d, 0xf1, 0xe5, 0xa4, 0x3d, 0x85, 0x0f, 0xd6, 0xbd,
  0xd6, 0xf0, 0xd6, 0xbd, 0xb3, 0x8d, 0x30, 0xbe, 0x67, 0xa7, 0xfd, 0xbd,
  0x04, 0xb3, 0x09, 0xbf, 0x1a, 0x85, 0xa7, 0x3d, 0xa0, 0x7f, 0xa9, 0x3e,
  0xb2, 0xb1, 0x5c, 0x3d, 0x71, 0xd5, 0x5d, 0xbe, 0x98, 0x2a, 0x27, 0x3f,
  0x70, 0x6e, 0x1a, 0xbe, 0xa5, 0x53, 0xe2, 0xbc, 0x2d, 0x61, 0xd7, 0xbc,
  0xf1, 0xa3, 0x94, 0xbe, 0x66, 0x71, 0x89, 0xbe, 0x4d, 0xd3, 0x39, 0x3e,
  0x3c, 0x5f, 0x32, 0xbd, 0x48, 0xe6, 0x97, 0xbd, 0x69, 0xee, 0x0d, 0xbe,
  0xfa, 0x1f, 0x13, 0xbe, 0x19, 0xbc, 0x5d, 0xbe, 0xbd, 0x5f, 0x98, 0x3d,
  0xf9, 0x33, 0xad, 0x3d, 0x49, 0xd6, 0x75, 0x3d, 0xeb, 0xff, 0xb7, 0xbd,
  0x10, 0x28, 0x55, 0x3e, 0xde, 0x03, 0x74, 0xbe, 0x47, 0x59, 0x44, 0xbe,
  0x20, 0x80, 0x85, 0xbe, 0xb7, 0x33, 0x2c, 0xbe, 0xfa, 0xa7, 0x04, 0xbf,
  0xa4, 0xba, 0x47, 0x3d, 0xc8, 0x05, 0xfc, 0x3c, 0x32, 0x41, 0x37, 0xbd,
  0xb6, 0x62, 0x90, 0x3d, 0x5c, 0x8f, 0x73, 0xbe, 0x16, 0xa4, 0x3d, 0xbe,
  0xec, 0xd9, 0x26, 0x3d, 0x59, 0x6f, 0x69, 0x3e, 0x52, 0x01, 0x86, 0xbc,
  0x88, 0x24, 0x0d, 0xbd, 0x19, 0x4d, 0x2f, 0x3e, 0xdc, 0xaf, 0xac, 0xbe,
  0xb6, 0x04, 0x2a, 0xbe, 0x80, 0x10, 0x79, 0xbe, 0xd4, 0x6e, 0xfc, 0xbe,
  0x8e, 0x2e, 0xe3, 0xbe, 0xb1, 0x58, 0x4f, 0xbe, 0x7e, 0xcd, 0x97, 0x3c,
  0xc0, 0xe4, 0x78, 0xbd, 0xe0, 0x26, 0xdd, 0x3d, 0xa9, 0x02, 0x53, 0xbe,
  0xfc, 0xe7, 0x13, 0xbe, 0x7a, 0xb9, 0x04, 0x3e, 0xf9, 0x59, 0x38, 0x3e,
  0x64, 0x5f, 0x7c, 0x3c, 0xf8, 0xd7, 0x05, 0xbc, 0x19, 0x9d, 0x13, 0x3e,
  0xdd, 0xe1, 0xb7, 0xbd, 0xd6, 0x1a, 0x00, 0x3e, 0x57, 0x9b, 0x37, 0xbe,
  0x37, 0x65, 0x63, 0xbe, 0x63, 0xf5, 0xd5, 0xbe, 0x6c, 0xcb, 0xe0, 0xbd,
  0x84, 0xbc, 0xd5, 0x3d, 0x37, 0x25, 0x08, 0x3e, 0xc4, 0xa6, 0xca, 0x3c,
  0x14, 0x61, 0xad, 0xbd, 0x82, 0x2e, 0xde, 0xbd, 0x75, 0x8b, 0x0a, 0x3d,
  0x82, 0xb4, 0x7f, 0x3c, 0x15, 0x9e, 0x8f, 0x3d, 0x89, 0xe3, 0x8d, 0x3e,
  0x19, 0xed, 0xa9, 0x3d, 0x48, 0x7b, 0x9c, 0x3d, 0x6f, 0x8f, 0x47, 0x3e,
  0x32, 0x50, 0x96, 0x3d, 0xaf, 0xe2, 0x89, 0x3c, 0x5b, 0x43, 0x6c, 0x3e,
  0xc5, 0x0b, 0x1d, 0x3b, 0x26, 0x1c, 0x89, 0xbd, 0x07, 0xe8, 0x20, 0x3e,
  0x23, 0x7a, 0xf3, 0x3d, 0x01, 0xa1, 0xf1, 0xbd, 0x89, 0xe8, 0xbd, 0xbc,
  0x1d, 0x14, 0x07, 0x3e, 0x0e, 0xe9, 0x0f, 0x3e, 0x0c, 0xc8, 0xcd, 0x3c,
  0x71, 0x61, 0xb0, 0x3e, 0xac, 0x06, 0xa6, 0x3e, 0x80, 0x9b, 0x0d, 0x3e,
  0x22, 0xe5, 0x48, 0x3c, 0x25, 0x91, 0x1f, 0x3e, 0xf5, 0x63, 0x24, 0xbe,
  0x25, 0x5d, 0x82, 0xbe, 0x82, 0x03, 0x1a, 0x3e, 0x2c, 0x12, 0xa1, 0xbd,
  0x66, 0xaa, 0x70, 0x3d, 0x59, 0x30, 0x42, 0x3e, 0x88, 0x93, 0x23, 0xbe,
  0x3a, 0xaa, 0xb2, 0xbc, 0xa7, 0x8e, 0x38, 0xbd, 0xe6, 0xc2, 0x80, 0x3e,
  0x16, 0xaf, 0x36, 0x3d, 0x07, 0x1d, 0x53, 0xbd, 0x55, 0xad, 0xdb, 0x3d,
  0x07, 0xd5, 0x5e, 0x3e, 0x45, 0x8d, 0x6c, 0xbd, 0x9b, 0xd1, 0xc7, 0x3d,
  0xdd, 0x7f, 0x17, 0xbe, 0xeb, 0x1f, 0xcc, 0xbe, 0xd0, 0x8d, 0x82, 0xbd,
  0x31, 0xec, 0x46, 0xbd, 0x24, 0xb9, 0xaa, 0xbd, 0xab, 0x48, 0x17, 0x3e,
  0x25, 0xca, 0x5c, 0xbe, 0x76, 0xaa, 0x3e, 0x3d, 0x0c, 0x2f, 0x11, 0x3e,
  0x2d, 0xb7, 0x15, 0x3e, 0x48, 0xb3, 0x9a, 0x3c, 0x2d, 0xa7, 0xc5, 0xbc,
  0x29, 0x3d, 0x70, 0x3e, 0x39, 0xf3, 0x8c, 0x3e, 0xdc, 0xaa, 0x17, 0x3d,
  0x55, 0x16, 0x0b, 0xbd, 0xf2, 0xda, 0xcd, 0xbd, 0x9e, 0x18, 0xff, 0xbe,
  0x9c, 0x72, 0x77, 0xbe, 0x54, 0x97, 0x44, 0x3d, 0xfb, 0x8c, 0xca, 0x3c,
  0x7e, 0xfb, 0x1e, 0x3d, 0x94, 0x6c, 0xab, 0xbd, 0x5e, 0xaa, 0x8d, 0x3d,
  0x03, 0x6e, 0x14, 0x3e, 0xf2, 0x5e, 0xa9, 0x3e, 0x4f, 0xc7, 0xcc, 0x3d,
  0xb0, 0x55, 0x35, 0xbe, 0x8c, 0x25, 0xc4, 0x3d, 0x8f, 0x51, 0x83, 0x3e,
  0xb9, 0xa2, 0xff, 0x3d, 0x5c, 0xf8, 0x05, 0x3d, 0x9b, 0xdb, 0x81, 0xbe,
  0x86, 0x1b, 0x08, 0xbf, 0xe6, 0x83, 0xbc, 0xbe, 0xe3, 0x65, 0x0d, 0x3d,
  0xd6, 0x7f, 0x2c, 0xbe, 0x05, 0x34, 0xff, 0x3d, 0x40, 0x88, 0x00, 0xbe,
  0x4b, 0xce, 0xc8, 0xbd, 0xc1, 0x63, 0x0c, 0x3e, 0xd2, 0xd1, 0x53, 0x3e,
  0xa6, 0x8d, 0xfe, 0x3c, 0x54, 0xec, 0x16, 0x3d, 0x47, 0x25, 0x23, 0x3e,
  0x6b, 0x3b, 0x10, 0x3e, 0x0a, 0x18, 0x1a, 0x3d, 0x92, 0xfe, 0xa2, 0x3d,
  0x84, 0x26, 0xf2, 0xbd, 0xc3, 0xde, 0xb8, 0xbe, 0xba, 0xa1, 0xca, 0xbe,
  0x80, 0x7c, 0xb5, 0xbd, 0xfc, 0x69, 0x72, 0xbc, 0xe2, 0xe1, 0x26, 0x3e,
  0xf1, 0x85, 0x4a, 0xbe, 0xde, 0x32, 0x65, 0xbd, 0x62, 0x71, 0x38, 0x3e,
  0x86, 0x61, 0xbe, 0x3e, 0x1f, 0x8f, 0xc2, 0xbd, 0x5c, 0xac, 0xcc, 0xbd,
  0xf0, 0x80, 0x4c, 0xbd, 0xe8, 0x6b, 0x94, 0x3d, 0xfe, 0x55, 0xcb, 0x3c,
  0x84, 0x1f, 0x64, 0xbd, 0xd7, 0x5f, 0x83, 0xbd, 0x30, 0x07, 0xa5, 0xbc,
  0x6b, 0x11, 0x9a, 0x3b, 0x1c, 0x36, 0x4e, 0x3d, 0x6a, 0x58, 0x96, 0x3d,
  0xcf, 0x25, 0xfc, 0x3d, 0xc4, 0x68, 0xc1, 0xbd, 0x27, 0x23, 0x35, 0x3d,
  0x43, 0x31, 0xa6, 0x3d, 0xad, 0x30, 0x4e, 0xbc, 0x91, 0x09, 0x72, 0x3d,
  0x18, 0xc9, 0xcd, 0xbc, 0xff, 0x57, 0x49, 0x3e, 0x3a, 0xe8, 0x4b, 0x3d,
  0xf2, 0xce, 0x2f, 0xbe, 0x7e, 0xcd, 0x68, 0xbe, 0xe8, 0xe0, 0xdb, 0x3c,
  0x95, 0x1e, 0xf5, 0xbe, 0x40, 0x2b, 0x12, 0x3e, 0x85, 0x4f, 0x5c, 0x3e,
  0xee, 0x14, 0x28, 0x3e, 0x4c, 0xde, 0xfd, 0xbd, 0x50, 0xc8, 0xf1, 0xbd,
  0x67, 0xa9, 0x31, 0xbd, 0xeb, 0xb6, 0xee, 0x3d, 0xb1, 0x41, 0x90, 0x3e,
  0xfd, 0x52, 0x2a, 0xbe, 0x26, 0x5a, 0xa0, 0x3e, 0x57, 0xf7, 0x75, 0x3d,
  0x03, 0x89, 0xda, 0xbc, 0xcf, 0xe0, 0x92, 0x3c, 0xc6, 0x33, 0x24, 0xbe,
  0xe5, 0x7f, 0x0b, 0xbe, 0xa1, 0x16, 0xbc, 0xbe, 0xa7, 0x29, 0x03, 0xbc,
  0xe5, 0x5f, 0xa8, 0x3d, 0xd7, 0x23, 0xd7, 0x3d, 0x37, 0x8f, 0xaa, 0x3b,
  0x70, 0x67, 0x0c, 0xbe, 0xd0, 0xfc, 0xf3, 0x3d, 0x8c, 0x74, 0x8a, 0x3e,
  0x1a, 0xd5, 0xe6, 0x3e, 0x88, 0xbb, 0x3e, 0xbe, 0x9d, 0x79, 0xdd, 0xbb,
  0x57, 0x6f, 0x63, 0x3e, 0xe5, 0x39, 0x66, 0x3d, 0x72, 0x06, 0x86, 0xbd,
  0x99, 0x70, 0x5b, 0xbe, 0x02, 0x83, 0xfe, 0xbd, 0x74, 0xfa, 0x82, 0xbe,
  0x80, 0xce, 0x33, 0xbe, 0xc0, 0x78, 0x9c, 0x3d, 0x4c, 0x8d, 0xde, 0xbd,
  0x2c, 0x91, 0x26, 0x3e, 0x77, 0x89, 0xec, 0x3d, 0x6b, 0x97, 0x8b, 0xbd,
  0xee, 0x62, 0x4b, 0x3e, 0xd9, 0x00, 0xa6, 0x3e, 0xc3, 0x22, 0x72, 0xbd,
  0x93, 0x41, 0xd3, 0x3d, 0xb8, 0x0c, 0xb9, 0x3d, 0xef, 0x12, 0x37, 0x3e,
  0x4a, 0xfd, 0x4e, 0xbd, 0x34, 0xca, 0x29, 0xbe, 0x1d, 0xfe, 0x35, 0xbe,
  0x5c, 0x8f, 0xfe, 0xbe, 0xb6, 0x88, 0xaa, 0x3d, 0xac, 0x0f, 0xe1, 0xbb,
  0x4a, 0xf4, 0x21, 0xbe, 0x9b, 0x34, 0xe2, 0x3d, 0xc5, 0x19, 0xd6, 0x3c,
  0x27, 0xc9, 0x2f, 0x3d, 0x4a, 0x67, 0xf6, 0x3d, 0x3f, 0xde, 0x87, 0x3e,
  0x46, 0x0b, 0xc1, 0xbd, 0xf5, 0x2c, 0x4a, 0x3e, 0x0b, 0xab, 0x79, 0x3e,
  0x2d, 0x50, 0x62, 0xbd, 0x80, 0x58, 0xab, 0xbd, 0x01, 0xf7, 0xd0, 0xbe,
  0x9c, 0xdc, 0x0e, 0x3d, 0x55, 0x17, 0x81, 0xbe, 0x47, 0x34, 0x76, 0xbe,
  0x04, 0x76, 0xbe, 0x3d, 0x8e, 0xd9, 0x65, 0x3e, 0xaa, 0x6e, 0x94, 0x3e,
  0x42, 0xfc, 0xa6, 0x3d, 0x36, 0xa1, 0xd2, 0x3d, 0xb5, 0x82, 0x72, 0x3e,
  0x69, 0x94, 0x1f, 0x3e, 0x47, 0xd0, 0x3f, 0xbd, 0x1f, 0xf1, 0xa2, 0x3d,
  0xe6, 0x6f, 0xef, 0x3e, 0xde, 0x0e, 0x00, 0xbe, 0x03, 0xb3, 0xa2, 0xbd,
  0xd7, 0x2c, 0x9f, 0xbe, 0x9f, 0x69, 0xb2, 0xbd, 0x4e, 0x17, 0x79, 0xbe,
  0xe6, 0xf9, 0x36, 0xbc, 0xa0, 0xf3, 0x08, 0xbd, 0x81, 0x36, 0x3c, 0xbc,
  0x9c, 0x5e, 0x07, 0x3e, 0xac, 0x25, 0xe9, 0x3c, 0x42, 0x5c, 0xc8, 0xbe,
  0x1e, 0xee, 0xf7, 0x3d, 0xf1, 0xe1, 0x98, 0x3c, 0x6e, 0xb9, 0x0d, 0xbd,
  0xcf, 0x70, 0x1c, 0x3d, 0x44, 0x89, 0x53, 0x3e, 0xb8, 0x05, 0x7b, 0xbc,
  0xa7, 0x27, 0xda, 0x3c, 0x3b, 0x07, 0x8d, 0xbe, 0xce, 0xaa, 0x1d, 0xbd,
  0xf0, 0x24, 0xef, 0xbd, 0x59, 0xec, 0x9e, 0xbd, 0x02, 0xd7, 0xf7, 0x3d,
  0x52, 0x7a, 0xc0, 0x3d, 0xb5, 0xaf, 0x33, 0x3e, 0xba, 0x90, 0xab, 0xbb,
  0xc4, 0xb7, 0xaf, 0xbd, 0x61, 0x38, 0x8b, 0x3d, 0xcd, 0x32, 0xda, 0x3d,
  0x07, 0xd7, 0x37, 0x3d, 0xe2, 0x5b, 0x45, 0x3b, 0xb2, 0x97, 0x48, 0xbe,
  0x41, 0xab, 0x75, 0xbd, 0x48, 0x1e, 0xb9, 0xbc, 0x6e, 0xb4, 0x60, 0xbe,
  0xfd, 0x1a, 0x2f, 0xbe, 0x07, 0x5a, 0x12, 0xbe, 0xb2, 0x1e, 0x5f, 0xbd,
  0x30, 0xa3, 0x78, 0xbe, 0x4f, 0x56, 0x4d, 0xbe, 0x53, 0x39, 0x04, 0xbd,
  0x1d, 0xe1, 0x50, 0xbd, 0x60, 0x12, 0xf0, 0xbb, 0xf4, 0x4a, 0x40, 0xbe,
  0x56, 0x9e, 0x37, 0x3d, 0xca, 0x6a, 0x74, 0xbd, 0x0b, 0x8f, 0xf0, 0x3d,
  0x07, 0x14, 0xe9, 0xbd, 0xd2, 0xc2, 0xe1, 0xbd, 0x87, 0xc7, 0xef, 0xbd,
  0xb2, 0xf6, 0xd5, 0x3d, 0xb6, 0x06, 0x00, 0x3e, 0x39, 0x17, 0x6e, 0xbe,
  0xb7, 0x88, 0x3e, 0xbe, 0x0f, 0xcf, 0xa3, 0x3d, 0x18, 0xed, 0x0f, 0xbc,
  0x1f, 0x92, 0xcb, 0xbd, 0x4a, 0x53, 0x13, 0xbe, 0x75, 0xa0, 0xff, 0x3c,
  0xc2, 0x5a, 0x83, 0xbe, 0x8f, 0xdb, 0x07, 0xbe, 0xcc, 0x98, 0x26, 0xbe,
  0x7d, 0x18, 0x1a, 0xbe, 0xe9, 0x4e, 0x2d, 0x3e, 0x0d, 0x9e, 0xbf, 0xbd,
  0xa6, 0xf1, 0x6f, 0x3c, 0xa5, 0x58, 0xde, 0x3d, 0xd2, 0x53, 0x11, 0xbe,
  0xfc, 0x31, 0xd8, 0xbd, 0xca, 0xa0, 0x05, 0xbc, 0x90, 0x07, 0x6e, 0x3d,
  0x18, 0xcd, 0xdb, 0x3d, 0x2b, 0x57, 0x66, 0xbe, 0x10, 0xf5, 0x52, 0xbe,
  0x9e, 0x66, 0x0d, 0xbe, 0xb3, 0xd9, 0x6f, 0xbe, 0x57, 0xd6, 0x9c, 0xbd,
  0xc8, 0xbe, 0x61, 0xbe, 0xce, 0x5a, 0x56, 0xbe, 0x92, 0xb4, 0x26, 0xbe,
  0x01, 0x48, 0x98, 0xbd, 0x28, 0xae, 0x32, 0xbe, 0x66, 0xff, 0x78, 0xbe,
  0x55, 0x28, 0x0b, 0xbd, 0x35, 0x61, 0x32, 0xbd, 0x45, 0x56, 0x63, 0x3d,
  0xae, 0x3e, 0x91, 0x3c, 0x41, 0x3b, 0x4e, 0xbe, 0xcb, 0x78, 0x6f, 0xbd,
  0x80, 0xa8, 0xa5, 0x3d, 0x80, 0x7b, 0x78, 0xbd, 0xfd, 0xf5, 0x44, 0xbd,
  0x56, 0x30, 0x85, 0xbe, 0x73, 0x51, 0x72, 0xbe, 0x5e, 0x3a, 0x89, 0xbe,
  0xa2, 0x04, 0x67, 0x3d, 0x0a, 0xdc, 0xfe, 0xbd, 0x80, 0x26, 0xc1, 0xbd,
  0x02, 0xba, 0x31, 0xbd, 0x8a, 0xd3, 0xa1, 0xbb, 0x2f, 0xf3, 0xdb, 0xbc,
  0x2d, 0xba, 0x54, 0xbe, 0x4c, 0x3b, 0x0e, 0xbe, 0x89, 0xfb, 0x51, 0x3d,
  0xed, 0xdf, 0x69, 0x3d, 0x81, 0x2d, 0xba, 0xbd, 0x4a, 0x1c, 0x49, 0xbd,
  0xbe, 0x95, 0x06, 0x3d, 0x84, 0x7a, 0xdf, 0xbc, 0x1a, 0x28, 0x30, 0xbe,
  0x80, 0xec, 0xa0, 0xbd, 0xe9, 0xc5, 0x28, 0xbd, 0x2c, 0x14, 0x11, 0xbe,
  0x5f, 0xb9, 0x68, 0x3d, 0x62, 0xdc, 0x3e, 0x3d, 0x13, 0xdc, 0x8c, 0xbe,
  0x9c, 0xc6, 0x1f, 0x3e, 0x1f, 0x8e, 0xa9, 0xbd, 0xfc, 0xdc, 0x0f, 0xbe,
  0xe4, 0x19, 0x81, 0xbe, 0x74, 0x2d, 0x39, 0xbe, 0xa6, 0x62, 0x97, 0xbc,
  0x42, 0x79, 0x1e, 0xbc, 0x98, 0x2a, 0x42, 0xbe, 0x4a, 0xea, 0x6d, 0xbe,
  0xa2, 0x1e, 0x75, 0xbe, 0x16, 0x6b, 0x4c, 0x3d, 0xa6, 0x5c, 0x6b, 0xbc,
  0x65, 0xdf, 0x26, 0xbe, 0xed, 0xac, 0x62, 0xbe, 0xb0, 0x51, 0xb0, 0xbd,
  0x33, 0xd2, 0x3c, 0xbe, 0x68, 0x50, 0x11, 0x3e, 0xf1, 0x9f, 0xa9, 0xbc,
  0x3a, 0x81, 0x80, 0xbe, 0x30, 0x2d, 0x35, 0x3d, 0x00, 0x66, 0xcc, 0x3d,
  0xe0, 0xc9, 0x0d, 0xbe, 0x42, 0xa9, 0x90, 0xbe, 0xfc, 0x20, 0xe3, 0xbd,
  0xad, 0xa9, 0x5c, 0xbd, 0x83, 0xfd, 0x8f, 0xbe, 0x60, 0x40, 0x17, 0xbe,
  0x0e, 0x5c, 0xd2, 0xbc, 0x28, 0x46, 0x4c, 0xbd, 0x00, 0x16, 0x45, 0xbe,
  0x4e, 0xd5, 0x12, 0xbe, 0xa0, 0xff, 0xf6, 0x3d, 0x8d, 0xc2, 0x7a, 0xbe,
  0x59, 0x23, 0x2b, 0x3e, 0x97, 0x2c, 0x3a, 0xbd, 0xfb, 0xda, 0x0d, 0x3c,
  0xc5, 0xcd, 0xcf, 0xbd, 0x9d, 0x8c, 0x49, 0xbe, 0x3c, 0xbf, 0x92, 0xbe,
  0x03, 0x0f, 0x9e, 0xbd, 0xcf, 0xaa, 0xe8, 0x3c, 0x67, 0xd1, 0x76, 0xbe,
  0x59, 0x77, 0x9c, 0xbd, 0x52, 0x4e, 0xc8, 0x3d, 0x69, 0xc2, 0x49, 0xbe,
  0xf6, 0xe2, 0x72, 0xbe, 0x62, 0x87, 0xb2, 0xbd, 0xc3, 0xdc, 0x05, 0xbe,
  0x2a, 0xe5, 0x21, 0x3e, 0x13, 0xa6, 0x92, 0xbd, 0x80, 0x84, 0xf5, 0x3d,
  0x7b, 0x11, 0x11, 0xbe, 0x44, 0xe8, 0x01, 0x3e, 0x51, 0x87, 0xeb, 0xbe,
  0x6a, 0x17, 0x5b, 0xbe, 0xa4, 0xd6, 0x53, 0x3d, 0x9f, 0x72, 0x16, 0x3e,
  0x6a, 0x2d, 0x2d, 0xbe, 0xfa, 0x27, 0x3e, 0x3d, 0x69, 0x6e, 0xeb, 0xbd,
  0xaa, 0xf2, 0xfb, 0xbd, 0x12, 0xd9, 0xc8, 0x3d, 0xb0, 0x91, 0xb7, 0xbd,
  0x3e, 0x1e, 0x77, 0x3d, 0xed, 0x04, 0x61, 0xbe, 0x02, 0x5b, 0xc2, 0x3d,
  0x60, 0x66, 0x60, 0x3d, 0x59, 0xe3, 0xba, 0xbd, 0xac, 0xda, 0xcc, 0x3d,
  0x38, 0xfd, 0xf8, 0xbd, 0x02, 0x8e, 0x5b, 0x3c, 0x11, 0xe0, 0x6e, 0x3d,
  0x63, 0x81, 0x6d, 0xbe, 0xf0, 0x18, 0xf1, 0xbd, 0x32, 0x41, 0x50, 0xbd,
  0x29, 0xb7, 0x38, 0x3e, 0x96, 0xbb, 0x7c, 0x3e, 0x60, 0x62, 0x64, 0x3b,
  0xfa, 0x79, 0x58, 0x3e, 0x3f, 0x4d, 0xb1, 0xbd, 0xc3, 0x00, 0xe1, 0x3d,
  0x8c, 0x2e, 0x12, 0x3e, 0x05, 0xed, 0x52, 0x3d, 0x7d, 0x92, 0xea, 0xbd,
  0xe7, 0x87, 0x2f, 0x3e, 0xa9, 0x08, 0x86, 0x3c, 0x87, 0x8c, 0x2f, 0xbe,
  0x2e, 0xa0, 0x9b, 0x3b, 0x6e, 0x28, 0x04, 0xbe, 0x19, 0xd5, 0x20, 0xbe,
  0xa6, 0x72, 0xdf, 0x3c, 0x73, 0xc1, 0xda, 0x3c, 0x54, 0x10, 0x4d, 0x3e,
  0xfb, 0x6f, 0x09, 0x3e, 0x0e, 0x70, 0xad, 0x3d, 0xd5, 0xee, 0x7c, 0xbe,
  0x0b, 0x6d, 0x38, 0x3d, 0x87, 0x66, 0x66, 0x3d, 0xe9, 0x89, 0x34, 0xbe,
  0x50, 0xb5, 0x3d, 0x3e, 0xde, 0x51, 0x61, 0xbe, 0x8d, 0x68, 0x09, 0xbe,
  0x39, 0x4e, 0xd6, 0xbd, 0xb5, 0xfd, 0xcc, 0x3d, 0x56, 0x5a, 0x6f, 0xbe,
  0x42, 0xbe, 0xd7, 0xbd, 0xff, 0xbf, 0xad, 0x3d, 0xd7, 0x44, 0x40, 0x3d,
  0x28, 0x3c, 0x33, 0xbd, 0x8e, 0x56, 0x0e, 0x3e, 0x36, 0xa0, 0xd0, 0xbd,
  0xbf, 0x55, 0xbd, 0x3d, 0x7b, 0xd5, 0x95, 0x3d, 0x76, 0x36, 0x7d, 0xbe,
  0xdf, 0x81, 0x4c, 0xbe, 0x1f, 0x4c, 0xde, 0xbd, 0x7f, 0x66, 0x15, 0xbe,
  0x65, 0x26, 0x32, 0xbe, 0x5d, 0xd8, 0x90, 0xbd, 0xc5, 0xc5, 0x84, 0xbd,
  0x68, 0xfa, 0x39, 0xbd, 0xcb, 0xbc, 0x2c, 0x3d, 0xc9, 0x79, 0xee, 0x3d,
  0x53, 0x30, 0x29, 0xbe, 0xcd, 0x61, 0x01, 0x3e, 0xcd, 0x22, 0x00, 0xbe,
  0xe0, 0xc6, 0x4e, 0x3e, 0xba, 0x98, 0x03, 0xbc, 0x41, 0xb2, 0xdd, 0xbc,
  0xe9, 0x15, 0xc5, 0x3c, 0xbd, 0x04, 0xaa, 0xbd, 0xbf, 0x29, 0x92, 0xbd,
  0x46, 0x3a, 0x46, 0xbe, 0x1e, 0xd5, 0xd3, 0xbd, 0x98, 0xa8, 0xc4, 0xbc,
  0x30, 0x38, 0x8f, 0xbd, 0x8a, 0x2e, 0xab, 0xbd, 0xf7, 0x3a, 0xf7, 0xbc,
  0xd8, 0x88, 0x79, 0x3c, 0x2c, 0x03, 0x7f, 0x3e, 0x98, 0xa0, 0x02, 0x3c,
  0x78, 0xe8, 0xe1, 0xbc, 0xbc, 0xdb, 0xd1, 0xbd, 0xed, 0xfb, 0x5a, 0xbe,
  0xff, 0xc2, 0xcd, 0xbc, 0x23, 0x37, 0xe5, 0x3d, 0x82, 0x84, 0xcb, 0x3d,
  0x8b, 0x15, 0x32, 0xbc, 0x63, 0x67, 0xb6, 0x3d, 0x33, 0x0c, 0x3a, 0x3d,
  0xa3, 0xe7, 0x6f, 0xbe, 0x8b, 0x75, 0x6d, 0x3e, 0x11, 0x81, 0xa1, 0xbd,
  0xca, 0x0b, 0x34, 0xbd, 0x80, 0x7a, 0x18, 0xbe, 0xd6, 0xf5, 0x30, 0x3e,
  0xe1, 0xb1, 0x6d, 0x3e, 0x04, 0x06, 0xd3, 0xbc, 0x75, 0x0e, 0xa1, 0xbe,
  0x28, 0xb3, 0x83, 0xbe, 0xae, 0xdc, 0xa6, 0xbe, 0x3e, 0xcc, 0x27, 0x3e,
  0x51, 0xc7, 0x58, 0xbc, 0xc5, 0x74, 0xf1, 0xbd, 0x5a, 0xaf, 0x4a, 0x3e,
  0xae, 0x23, 0xb2, 0x3b, 0x48, 0xba, 0x63, 0xbe, 0xbd, 0x7d, 0x15, 0x3e,
  0xd7, 0x46, 0x69, 0x3e, 0x02, 0xb8, 0xf5, 0xbd, 0xf6, 0x13, 0x6a, 0xbd,
  0x56, 0xe0, 0x63, 0x3e, 0x1c, 0x4d, 0xac, 0x3d, 0x2b, 0x75, 0x61, 0xbd,
  0xf3, 0x66, 0x9d, 0xbe, 0x54, 0xed, 0xb0, 0xbe, 0x48, 0x6b, 0x93, 0xbe,
  0xd8, 0x75, 0xbb, 0x3d, 0x36, 0x08, 0xeb, 0x3c, 0x1a, 0x0e, 0x8c, 0xbe,
  0xda, 0x07, 0x21, 0xbe, 0x1b, 0xdd, 0x81, 0xbd, 0xbf, 0x38, 0xeb, 0xbd,
  0x64, 0xb5, 0x2f, 0x3e, 0x2c, 0x30, 0x4c, 0x3e, 0x93, 0x26, 0xb6, 0xbd,
  0x26, 0x2c, 0xd0, 0xbd, 0x70, 0xca, 0x49, 0x3e, 0x3e, 0x69, 0x10, 0x3d,
  0x53, 0xca, 0xd8, 0xbd, 0xf2, 0x28, 0x48, 0xbe, 0xe1, 0xbb, 0x88, 0xbe,
  0x5c, 0x9c, 0xa5, 0xbd, 0xd7, 0xf5, 0x8f, 0x3d, 0x1e, 0x61, 0xfa, 0x3c,
  0x50, 0xbb, 0xb0, 0xbd, 0x3f, 0x92, 0x3d, 0x3e, 0xca, 0xd4, 0xef, 0x3d,
  0xe9, 0x1e, 0xb1, 0xbd, 0x06, 0x65, 0x0c, 0x3e, 0x02, 0x2c, 0xdb, 0x3e,
  0x93, 0x4b, 0x1c, 0xbe, 0x12, 0x0e, 0xde, 0x3c, 0x84, 0x15, 0xf9, 0x3e,
  0x06, 0x09, 0xb3, 0xbd, 0xd5, 0x32, 0xa5, 0x3c, 0xa1, 0xee, 0xa2, 0xbd,
  0x6a, 0xf5, 0x1c, 0xbe, 0x39, 0x42, 0xb3, 0xbe, 0x3e, 0x4c, 0x6e, 0x3e,
  0x77, 0x21, 0xdd, 0x3d, 0x02, 0x88, 0x16, 0xbe, 0x12, 0xb1, 0xcd, 0x3d,
  0x7c, 0x43, 0x08, 0xbe, 0x57, 0x2f, 0x5c, 0xbe, 0x61, 0x95, 0x17, 0x3e,
  0x8e, 0x4f, 0xac, 0x3d, 0xa5, 0xc3, 0x4d, 0xbe, 0x06, 0xb5, 0x1f, 0x3e,
  0x31, 0x62, 0xbb, 0x3e, 0xce, 0x35, 0x8d, 0x3a, 0xa4, 0x98, 0xbe, 0x3d,
  0xfd, 0x5c, 0x2b, 0xbe, 0xdd, 0xb2, 0xa1, 0xbc, 0x4f, 0x09, 0x00, 0xbe,
  0x06, 0x2b, 0x63, 0xbd, 0x9f, 0x4e, 0x57, 0x3b, 0x98, 0x42, 0x8a, 0xbc,
  0xc2, 0xed, 0x4c, 0x3e, 0xcc, 0xb2, 0xfb, 0x3c, 0x17, 0x1b, 0xf1, 0xbd,
  0x7d, 0x45, 0x43, 0x3e, 0xf7, 0xda, 0x8f, 0x3e, 0x7b, 0xe7, 0xd0, 0xbd,
  0x63, 0x9b, 0xf4, 0x3d, 0xc4, 0x77, 0x0e, 0x3e, 0x2f, 0x40, 0x7a, 0x3b,
  0x06, 0xa2, 0xd8, 0x3d, 0xc1, 0x37, 0x03, 0x3d, 0xb6, 0x37, 0xbb, 0xbe,
  0x71, 0xae, 0x4d, 0xbc, 0xad, 0x1d, 0xaa, 0xbe, 0x2e, 0x4b, 0x43, 0xbd,
  0x46, 0x83, 0xde, 0x3d, 0xac, 0x30, 0x37, 0x3e, 0x73, 0x49, 0x7f, 0x3c,
  0x7b, 0x77, 0x64, 0xbe, 0x97, 0x6d, 0x7d, 0x3d, 0x68, 0xe3, 0xbb, 0x3c,
  0xb5, 0x53, 0xbd, 0xbd, 0xd0, 0x64, 0x8f, 0xbe, 0x29, 0x07, 0x0b, 0xbf,
  0x64, 0xb1, 0x79, 0x3e, 0x2a, 0xd8, 0x2b, 0x3e, 0x05, 0xda, 0x81, 0xbd,
  0x09, 0x02, 0x93, 0xbd, 0x74, 0x2a, 0xbe, 0x3d, 0x3a, 0x91, 0x85, 0x3d,
  0x38, 0xa8, 0x42, 0xbd, 0xdc, 0x79, 0x9a, 0x3d, 0x0b, 0x4e, 0xb6, 0xbd,
  0x9e, 0xa5, 0x77, 0xbe, 0xaa, 0x33, 0x1c, 0xbd, 0x52, 0x2b, 0x6d, 0xbe,
  0xab, 0xd6, 0x83, 0xbe, 0xe3, 0xe9, 0xcc, 0x3b, 0xe3, 0x06, 0x69, 0x3d,
  0x88, 0xfd, 0x0e, 0xbe, 0xd0, 0xe5, 0x55, 0x3e, 0x7a, 0x3c, 0xb7, 0xbc,
  0x74, 0x16, 0x4b, 0x3e, 0x68, 0x7d, 0x51, 0xbe, 0xe2, 0x3c, 0xd1, 0x3e,
  0x4a, 0x04, 0x03, 0x3e, 0x25, 0xc3, 0xee, 0xbd, 0xbe, 0x29, 0x8f, 0x3d,
  0x52, 0xe2, 0x3a, 0xbe, 0xf6, 0xd4, 0xd8, 0xbe, 0xf5, 0x4c, 0x6a, 0x3d,
  0x95, 0x3a, 0x83, 0xbd, 0xf8, 0xfc, 0x51, 0xbe, 0xf3, 0xcb, 0x1b, 0x3d,
  0x68, 0xe9, 0x15, 0x3e, 0xdf, 0x42, 0xa3, 0xbd, 0x93, 0x16, 0xa5, 0x3e,
  0x22, 0x4c, 0x01, 0x3d, 0xa3, 0x12, 0xdd, 0x3d, 0x7e, 0xf9, 0xf6, 0xbd,
  0x72, 0x60, 0x76, 0x3e, 0x0f, 0xa2, 0xed, 0xbd, 0x27, 0xc8, 0x02, 0x3c,
  0xea, 0x6a, 0x02, 0xbd, 0x1d, 0xc8, 0x55, 0xbd, 0x6f, 0x2b, 0xbc, 0xbe,
  0x7d, 0x8a, 0x87, 0x3d, 0xe2, 0xd4, 0xee, 0xbd, 0xae, 0xc2, 0xa3, 0xbd,
  0xf8, 0x3a, 0x09, 0x3d, 0xf3, 0x27, 0x4f, 0x3c, 0x0b, 0x8d, 0xfa, 0x3d,
  0x6d, 0x12, 0x79, 0x3e, 0x7d, 0xdf, 0x20, 0x3e, 0xe2, 0xa7, 0x44, 0xbd,
  0xf2, 0xdb, 0xa0, 0xbd, 0x54, 0xb7, 0xc1, 0x3e, 0xeb, 0xd5, 0x1a, 0xbe,
  0x48, 0xad, 0xbc, 0x3b, 0xa5, 0x2f, 0x0d, 0xbe, 0xe4, 0x39, 0x6c, 0x3d,
  0x74, 0xe5, 0x60, 0xbe, 0x2d, 0xae, 0x38, 0xbb, 0x07, 0x9a, 0x20, 0xbe,
  0xd0, 0xe8, 0x84, 0xbe, 0xb5, 0x60, 0x9c, 0x3d, 0xaa, 0x7b, 0xd5, 0xbd,
  0xdf, 0x64, 0xe5, 0x3c, 0x8b, 0x80, 0x82, 0x3e, 0x76, 0x2e, 0xcc, 0x3e,
  0xad, 0x0d, 0x5b, 0x3c, 0x55, 0xaa, 0x15, 0xbe, 0xca, 0xb4, 0x0d, 0x3f,
  0xe0, 0x12, 0x20, 0xbe, 0xd1, 0x96, 0xfd, 0xbd, 0x05, 0xae, 0x52, 0xbe,
  0xf6, 0xb4, 0x3e, 0xbe, 0xec, 0xa6, 0xb1, 0xbe, 0xed, 0x6c, 0x3f, 0xbd,
  0x13, 0x71, 0x72, 0xbe, 0x77, 0xab, 0x8d, 0xbe, 0x5e, 0x64, 0x5f, 0x3d,
  0xa7, 0x88, 0x85, 0x3c, 0xe5, 0x2d, 0xf7, 0xbd, 0xc5, 0xbb, 0x88, 0x3e,
  0xbd, 0x12, 0x29, 0x3e, 0x43, 0x04, 0x66, 0x3e, 0x25, 0x32, 0x10, 0xbe,
  0xae, 0x56, 0xba, 0x3e, 0xf9, 0x39, 0x25, 0xbe, 0x51, 0xb4, 0x51, 0xbe,
  0x00, 0x12, 0xd3, 0xbd, 0xb7, 0x04, 0x91, 0xbe, 0x7f, 0x7b, 0x9a, 0xbe,
  0xf8, 0x2c, 0xd9, 0x3c, 0xad, 0xca, 0x2a, 0xbc, 0x8f, 0x2f, 0xb3, 0xbe,
  0xab, 0x1d, 0xec, 0x3c, 0x97, 0x14, 0xe3, 0x3d, 0x16, 0xed, 0x66, 0xbe,
  0xc5, 0x1d, 0xd9, 0xbb, 0xdf, 0x64, 0xa0, 0x3d, 0xb0, 0x2a, 0x96, 0x3c,
  0xfb, 0xf0, 0xac, 0xbd, 0xbe, 0x8a, 0x70, 0x3e, 0xb3, 0x5b, 0x8c, 0x3d,
  0x04, 0xed, 0x39, 0xbe, 0x0b, 0x2a, 0xb0, 0xbd, 0xa3, 0x0b, 0x13, 0x3c,
  0xee, 0x0b, 0x33, 0xbe, 0x9e, 0x0a, 0xc8, 0x3d, 0x36, 0xe1, 0xa7, 0xbd,
  0xfd, 0x8c, 0xa8, 0xbd, 0x1a, 0x1c, 0x19, 0x3d, 0x64, 0x60, 0xe1, 0xbd,
  0x2e, 0x14, 0x37, 0xbd, 0x3d, 0xa3, 0x54, 0xbe, 0x81, 0xa3, 0x1e, 0xbe,
  0x58, 0x25, 0x36, 0xbd, 0xb3, 0x50, 0xa2, 0x3d, 0xb6, 0xa0, 0xbf, 0xbd,
  0x74, 0x39, 0x9a, 0x3d, 0x17, 0x02, 0x05, 0xbd, 0x9e, 0xc9, 0xe2, 0xbd,
  0x88, 0x48, 0x4d, 0xbd, 0x89, 0x2e, 0x18, 0xbe, 0xe1, 0x09, 0xfa, 0xbd,
  0x8c, 0xda, 0x3a, 0xbe, 0xa7, 0x11, 0xc4, 0x3c, 0xbf, 0x8c, 0xa2, 0xbe,
  0x58, 0xf2, 0xc2, 0x3d, 0xaa, 0xfd, 0x32, 0xbd, 0xd3, 0x3e, 0xdb, 0xbd,
  0xbd, 0x10, 0x98, 0xbd, 0x8b, 0x11, 0xc0, 0xbb, 0x8b, 0xf9, 0x40, 0x3d,
  0xe9, 0x49, 0xa0, 0xbd, 0x0b, 0x27, 0x45, 0xbc, 0xc9, 0x2c, 0x15, 0xbe,
  0xe8, 0x29, 0x6a, 0x3d, 0xa0, 0xbc, 0x0a, 0xbd, 0x99, 0x17, 0x57, 0xbe,
  0x76, 0x11, 0x41, 0xbe, 0xe3, 0x6c, 0x72, 0xbe, 0xeb, 0x01, 0x90, 0x3d,
  0xaa, 0xa5, 0xa8, 0xbe, 0xcc, 0x17, 0xc1, 0x3b, 0xa2, 0xa0, 0xba, 0x3d,
  0xa4, 0xbb, 0x6e, 0x3d, 0xe2, 0xd6, 0x4d, 0xbc, 0x62, 0x1c, 0x34, 0xbd,
  0xf4, 0x20, 0xc6, 0xbd, 0xfb, 0x0d, 0xaa, 0xbd, 0x8d, 0xc0, 0x27, 0x3e,
  0xf7, 0x79, 0xae, 0xbe, 0xcb, 0xaf, 0x5b, 0x3d, 0x11, 0x8f, 0x12, 0x3e,
  0x1b, 0x1c, 0x3b, 0xbe, 0x69, 0xf3, 0x17, 0x3b, 0x17, 0x3e, 0xb0, 0xbd,
  0xb8, 0x1f, 0xd2, 0x3d, 0xf3, 0x75, 0xa5, 0xbd, 0xaa, 0x4f, 0x9d, 0xbd,
  0xa2, 0x09, 0xbf, 0x3d, 0xbb, 0x0f, 0x27, 0xbd, 0xef, 0x64, 0x30, 0x3b,
  0x7e, 0x93, 0x04, 0xbe, 0x4c, 0x3d, 0xec, 0xbc, 0xdf, 0xec, 0x08, 0xbe,
  0xa3, 0x6c, 0xd8, 0x3d, 0x98, 0xce, 0x2d, 0xbe, 0x95, 0x73, 0x69, 0x3d,
  0xbd, 0x3b, 0x40, 0xbd, 0xca, 0x11, 0xae, 0x3d, 0x07, 0x3c, 0x89, 0xbd,
  0x93, 0x95, 0x99, 0x3d, 0x20, 0x15, 0x59, 0xbe, 0xfd, 0x48, 0x18, 0xbe,
  0x6a, 0xb3, 0x42, 0xbe, 0x75, 0x71, 0xbc, 0x3d, 0x9c, 0x8b, 0xd1, 0xbd,
  0x1b, 0x1f, 0x17, 0xbe, 0x57, 0x13, 0x37, 0xbe, 0xcf, 0x20, 0x3c, 0x3d,
  0x68, 0x45, 0x0d, 0xbe, 0x96, 0x34, 0x05, 0x3c, 0x00, 0x2c, 0x08, 0xbe,
  0xe9, 0x22, 0xa7, 0x3d, 0x7d, 0xfd, 0x1f, 0xbe, 0x1c, 0x81, 0x9e, 0xbd,
  0xd1, 0x38, 0x21, 0xbd, 0xcc, 0x04, 0xb5, 0x3c, 0x02, 0x61, 0x8f, 0xbd,
  0x81, 0x24, 0x91, 0xbe, 0x88, 0x60, 0xd9, 0xbd, 0x18, 0x11, 0x14, 0x3e,
  0x10, 0x68, 0xa2, 0x3c, 0xdb, 0x96, 0x50, 0xbc, 0xbf, 0x27, 0xa2, 0x3d,
  0x34, 0xdd, 0xba, 0xbd, 0x18, 0x77, 0xf9, 0x3c, 0x50, 0xcb, 0x04, 0xbc,
  0xe4, 0xe1, 0x9a, 0xbe, 0x93, 0x2a, 0xc5, 0xbd, 0x9f, 0x18, 0xc0, 0x3d,
  0x11, 0xb2, 0xde, 0xbd, 0x5f, 0x65, 0xb3, 0xbd, 0x66, 0x9f, 0x49, 0xbe,
  0x4f, 0xa7, 0xde, 0xbb, 0xae, 0xf6, 0x26, 0xbd, 0x72, 0x9b, 0x43, 0xbc,
  0xee, 0xb3, 0x50, 0x3b, 0x4c, 0x24, 0x94, 0x3d, 0x40, 0x82, 0x36, 0xbe,
  0x2d, 0xba, 0x71, 0xbc, 0x5c, 0x8a, 0x6c, 0xbe, 0x89, 0x4b, 0x70, 0x3a,
  0xbf, 0xc4, 0xef, 0xbd, 0xdb, 0xb8, 0x84, 0xbd, 0xaf, 0x32, 0xef, 0xbd,
  0xd8, 0x8c, 0x47, 0x3d, 0x71, 0xe9, 0x33, 0x3e, 0x92, 0x62, 0x2d, 0xbe,
  0xd9, 0x8c, 0xe8, 0xbd, 0xad, 0xd1, 0x56, 0xbe, 0x45, 0x11, 0xee, 0xbd,
  0xb0, 0x61, 0xb4, 0xbc, 0xc2, 0x22, 0x03, 0xbe, 0x64, 0x37, 0x82, 0xbe,
  0x57, 0x0e, 0x66, 0xbe, 0xf4, 0xba, 0xed, 0xbc, 0xae, 0x4d, 0xea, 0xbd,
  0x00, 0x29, 0xbf, 0x3d, 0x85, 0x36, 0xfc, 0x3c, 0xc7, 0x6a, 0x83, 0xbd,
  0xa1, 0x34, 0x0b, 0xbe, 0x92, 0xa8, 0x55, 0xbd, 0x30, 0x7e, 0xe8, 0xbd,
  0x64, 0x06, 0xea, 0x3b, 0x46, 0x23, 0xcb, 0xbd, 0x49, 0xcc, 0x71, 0x3d,
  0x61, 0x7d, 0x90, 0xbe, 0x28, 0xe6, 0x70, 0xbe, 0xd0, 0xd8, 0xcc, 0xbc,
  0xc9, 0x42, 0x63, 0xbe, 0x6b, 0x35, 0x75, 0xbd, 0x4b, 0xde, 0x14, 0xbb,
  0x34, 0x2b, 0x5e, 0xbd, 0x6c, 0x3d, 0xa5, 0x3d, 0xea, 0x58, 0x02, 0xbe,
  0xb7, 0x56, 0x92, 0x3d, 0xc4, 0x9e, 0xf2, 0xbc, 0x09, 0xb0, 0x42, 0xbe,
  0x31, 0x77, 0x90, 0xbd, 0x56, 0xed, 0xad, 0xbd, 0x17, 0x48, 0x54, 0x3c,
  0x9b, 0xbf, 0xa0, 0x3c, 0x4f, 0xd3, 0xb4, 0xbe, 0xf5, 0x16, 0x97, 0x3b,
  0x7e, 0x77, 0xe1, 0xbb, 0x00, 0x74, 0x33, 0xbe, 0x9d, 0xc5, 0x5b, 0xbd,
  0xa0, 0x9d, 0x90, 0xbb, 0x80, 0xa4, 0x4b, 0xbe, 0xfd, 0x0f, 0xaa, 0x3c,
  0x00, 0x57, 0x7b, 0xbe, 0x22, 0xc4, 0xb5, 0xbd, 0x24, 0x80, 0x54, 0xbe,
  0xd7, 0x9f, 0x51, 0xbd, 0x21, 0x75, 0x37, 0xbe, 0x8c, 0xa3, 0x28, 0x3d,
  0x2a, 0x2c, 0x46, 0xbe, 0x8d, 0x7f, 0xd1, 0xbd, 0x3c, 0x5b, 0x61, 0xbe,
  0xfb, 0x45, 0x22, 0x3e, 0x3b, 0xb9, 0x4c, 0x3c, 0x28, 0x01, 0x6d, 0xbd,
  0xb0, 0x01, 0x6b, 0xbe, 0x7e, 0x71, 0x5e, 0x3c, 0x41, 0xbe, 0x20, 0xbe,
  0x8d, 0x8b, 0xe5, 0x3c, 0x7a, 0xad, 0xa0, 0x3d, 0xb2, 0xa9, 0x8f, 0xbe,
  0xe9, 0xb4, 0x19, 0x3e, 0xb9, 0xac, 0x0a, 0xbe, 0x53, 0xd3, 0x91, 0xbe,
  0x23, 0x4e, 0x9e, 0xbe, 0xbc, 0x1f, 0x48, 0xbe, 0xb7, 0x9f, 0x09, 0x3e,
  0x56, 0xd6, 0xed, 0xbd, 0x45, 0x27, 0xed, 0xbd, 0x9e, 0xa6, 0x95, 0x3d,
  0x62, 0xca, 0x13, 0xbe, 0x4a, 0x34, 0x5e, 0xbe, 0x59, 0x89, 0x62, 0xbe,
  0x23, 0x41, 0xf1, 0xbd, 0x9a, 0x84, 0x5c, 0xbe, 0x20, 0xb7, 0xda, 0x3d,
  0x9a, 0x7f, 0x38, 0xbe, 0x78, 0x77, 0x0c, 0xbe, 0x8f, 0xa7, 0x28, 0xbd,
  0x3b, 0xe5, 0x5b, 0xbd, 0x70, 0x52, 0x12, 0xbe, 0x75, 0xb5, 0x4a, 0xbe,
  0x47, 0x95, 0x5c, 0xbd, 0x79, 0x9b, 0xaf, 0xbe, 0xe0, 0xb0, 0xad, 0x3d,
  0x39, 0xbf, 0xb4, 0x3c, 0xf8, 0x5d, 0x0f, 0x3e, 0x45, 0x7b, 0xcd, 0xbc,
  0x0c, 0x82, 0x14, 0xbe, 0xde, 0x9d, 0x93, 0x3c, 0x95, 0x4c, 0xba, 0x3c,
  0x0c, 0xda, 0x2e, 0x3d, 0x15, 0xe4, 0x4e, 0xbe, 0xbd, 0x7e, 0x06, 0xbd,
  0x79, 0x99, 0x5e, 0xbe, 0x70, 0x79, 0x17, 0xbe, 0xd2, 0x39, 0xe4, 0xba,
  0x66, 0xa4, 0x9d, 0x3d, 0x01, 0xd7, 0xee, 0x3d, 0xc0, 0x1e, 0x96, 0xbe,
  0xf9, 0xc7, 0x4a, 0xbd, 0x49, 0xf3, 0x1b, 0x3c, 0x86, 0x51, 0x46, 0xbe,
  0x8b, 0x04, 0x26, 0xbe, 0x6e, 0x23, 0x2a, 0xbd, 0x78, 0xfc, 0x71, 0xbe,
  0x20, 0x54, 0x62, 0xbe, 0x55, 0xb9, 0xe5, 0xbc, 0xac, 0x6e, 0x2e, 0xbd,
  0x8b, 0x70, 0x9d, 0xbd, 0xa8, 0x85, 0x6b, 0xbe, 0xb2, 0x21, 0x43, 0xbe,
  0x91, 0xbc, 0x26, 0xbe, 0xc2, 0x38, 0x52, 0xbe, 0x34, 0xad, 0xc1, 0xbd,
  0x4d, 0xb6, 0x34, 0xbe, 0xbf, 0x17, 0xe5, 0xbc, 0x8b, 0x2a, 0x2a, 0xbd,
  0x5d, 0xb3, 0x12, 0x3d, 0x33, 0xf7, 0x99, 0xbe, 0x4d, 0x3c, 0x98, 0x3c,
  0x32, 0x81, 0xf2, 0xbd, 0xf4, 0xed, 0xd2, 0x3b, 0xff, 0x3a, 0x1b, 0xbe,
  0xda, 0x22, 0x18, 0xbd, 0x2a, 0xcc, 0x46, 0x3d, 0x52, 0xe4, 0x9c, 0x3d,
  0x18, 0xbf, 0x80, 0x3d, 0x85, 0x4f, 0x87, 0xbe, 0x86, 0x2f, 0x84, 0x3c,
  0x8b, 0xed, 0xaf, 0xbd, 0xf8, 0x9e, 0xdb, 0x3d, 0xb5, 0x79, 0xf8, 0x3d,
  0xfa, 0xfa, 0x11, 0xbd, 0xc5, 0x9a, 0x7b, 0xbc, 0xc5, 0xae, 0x76, 0xbe,
  0x0f, 0x71, 0x8a, 0xbc, 0x53, 0xee, 0x59, 0xbe, 0x69, 0x39, 0xa2, 0xbd,
  0xba, 0xff, 0xd1, 0xbd, 0xd5, 0x2e, 0xf0, 0xbd, 0xfa, 0x22, 0x08, 0xbd,
  0xbe, 0xce, 0xd1, 0xbd, 0xc1, 0x35, 0x16, 0x3d, 0x1a, 0x70, 0x1f, 0xbe,
  0xd5, 0xae, 0x0f, 0x3d, 0xf5, 0x32, 0x6d, 0xbe, 0xd9, 0x9d, 0x2d, 0x3d,
  0x82, 0xbb, 0x2e, 0x3d, 0xcc, 0x61, 0xdc, 0xbd, 0x0e, 0xfa, 0xf0, 0x3d,
  0x53, 0xcd, 0xc3, 0xbe, 0x4a, 0x80, 0x54, 0x3e, 0x2c, 0xcd, 0x85, 0xbe,
  0x6a, 0xdf, 0x14, 0xbe, 0x85, 0x13, 0xe9, 0xbd, 0x08, 0x41, 0xbf, 0xbd,
  0xc6, 0x96, 0x63, 0xbe, 0x1f, 0x11, 0xa3, 0x3d, 0x7b, 0x04, 0xcf, 0x3d,
  0x9c, 0x9a, 0xe8, 0xbe, 0x84, 0xea, 0xaa, 0xbd, 0xf5, 0x9e, 0x38, 0xbe,
  0x56, 0xee, 0x13, 0x3d, 0x80, 0x29, 0xd7, 0x3d, 0x4b, 0x93, 0xae, 0xbe,
  0x8d, 0x08, 0x2a, 0xbd, 0xca, 0xc6, 0x82, 0xbe, 0x20, 0xc7, 0xb0, 0x3d,
  0xef, 0xc1, 0x81, 0xbe, 0x4a, 0xa0, 0x6d, 0xbe, 0x52, 0xe1, 0x4e, 0x3d,
  0x7e, 0x0d, 0xc5, 0x3d, 0x19, 0x19, 0x24, 0xbe, 0x61, 0xcb, 0x11, 0xbd,
  0xe7, 0x58, 0x13, 0x3e, 0xb9, 0x38, 0xf4, 0xbe, 0x44, 0x4a, 0xc1, 0xbd,
  0xd9, 0x7b, 0x5d, 0xbe, 0x28, 0xb0, 0x84, 0xbb, 0x57, 0xbb, 0x9a, 0x3d,
  0x1a, 0xa2, 0x23, 0x3d, 0xb7, 0xed, 0x95, 0xbd, 0x71, 0x42, 0x63, 0xbe,
  0x44, 0x82, 0x29, 0xbc, 0x9f, 0x74, 0x93, 0xbe, 0x53, 0xd8, 0x89, 0xbe,
  0x4c, 0x0b, 0xa1, 0x3b, 0xa3, 0xed, 0x9d, 0x3d, 0xf7, 0xdf, 0xb9, 0xbd,
  0x47, 0x4c, 0xfb, 0x3d, 0x38, 0xee, 0x60, 0x3d, 0x25, 0x05, 0x3c, 0xbe,
  0x87, 0xa1, 0xe6, 0xbd, 0xbd, 0xd5, 0xb2, 0xbd, 0x92, 0xb1, 0x89, 0x3d,
  0xfa, 0xec, 0xbf, 0x3c, 0x49, 0x0c, 0x8c, 0x3e, 0xff, 0x34, 0x5b, 0x3d,
  0x3f, 0x38, 0x58, 0xbe, 0xa5, 0xaa, 0xcf, 0x3c, 0x55, 0x04, 0x0f, 0xbe,
  0xeb, 0xbc, 0xb6, 0xbe, 0xd4, 0xab, 0x4c, 0x3d, 0x18, 0x0a, 0x2a, 0xbe,
  0xf6, 0xcf, 0x3c, 0x3d, 0x97, 0x1b, 0xdf, 0x3d, 0xd3, 0x93, 0x86, 0x3d,
  0xd9, 0x76, 0x82, 0xbe, 0xb4, 0x40, 0x57, 0x3d, 0x51, 0x69, 0x0b, 0x3d,
  0xf1, 0xf2, 0xd6, 0x3d, 0xb9, 0x5b, 0xa4, 0x3d, 0x3c, 0x3f, 0x8b, 0xbd,
  0xda, 0x34, 0xa5, 0x3d, 0x54, 0x20, 0xfb, 0xbc, 0x3e, 0x29, 0x67, 0xbd,
  0x0c, 0xc5, 0x33, 0xbe, 0x7f, 0xcd, 0xbe, 0xbe, 0xba, 0xb8, 0x37, 0xbe,
  0xae, 0xc6, 0x0f, 0x3c, 0xab, 0x3d, 0x68, 0x3e, 0xe0, 0x84, 0x25, 0x3e,
  0x10, 0x90, 0x53, 0x3d, 0x80, 0x47, 0x65, 0xbe, 0xd0, 0x54, 0x1c, 0xbd,
  0x77, 0x2e, 0x11, 0xbe, 0x69, 0x45, 0x76, 0x3d, 0xb5, 0x3f, 0x15, 0xbe,
  0x2c, 0x40, 0xb9, 0x3d, 0x0e, 0x23, 0x65, 0xbd, 0x35, 0x59, 0x2b, 0xbe,
  0xf0, 0x05, 0xab, 0xbc, 0x4c, 0xe9, 0x4a, 0xbe, 0x50, 0x1c, 0xe8, 0xbd,
  0x4a, 0x00, 0x04, 0xbc, 0x38, 0x77, 0x67, 0xbd, 0xea, 0xe5, 0x9e, 0xbc,
  0x8f, 0xc4, 0x84, 0xbd, 0x30, 0x49, 0x58, 0x3d, 0x7d, 0x67, 0x1b, 0xbe,
  0xb9, 0x6b, 0x1f, 0xbd, 0x83, 0xae, 0x49, 0x3d, 0x3c, 0x96, 0xa2, 0x3b,
  0xd5, 0xa6, 0xed, 0xbd, 0x4a, 0x07, 0x26, 0xbd, 0x17, 0xdc, 0xd3, 0xbd,
  0xf5, 0x9d, 0x87, 0xbd, 0x5a, 0x14, 0xb2, 0x3d, 0xe7, 0xcd, 0x77, 0xbe,
  0xac, 0xf1, 0x6b, 0xbe, 0x8c, 0x2a, 0x7d, 0x3b, 0x73, 0xc7, 0xfd, 0xbd,
  0x22, 0x54, 0xb9, 0xbd, 0x09, 0x05, 0x9f, 0xbe, 0xa2, 0xba, 0xf4, 0x3d,
  0x9e, 0xba, 0x72, 0xbe, 0x1f, 0x35, 0xaa, 0xbd, 0xef, 0x69, 0x31, 0xbd,
  0x7e, 0x88, 0x0b, 0xbd, 0xfd, 0x0e, 0x24, 0xbd, 0x07, 0x30, 0x1d, 0x3e,
  0xa3, 0x52, 0xb6, 0xbd, 0xf1, 0x7c, 0x27, 0x3d, 0x68, 0xec, 0xaf, 0xbd,
  0x7a, 0xf2, 0x63, 0xbe, 0xb7, 0x3f, 0x13, 0x3d, 0x2c, 0x61, 0xf6, 0xbd,
  0x11, 0x68, 0x1a, 0xbe, 0x32, 0x0f, 0x0a, 0xbd, 0xc8, 0x8f, 0xd1, 0x3c,
  0x6d, 0xef, 0x00, 0xbe, 0x9b, 0x3a, 0xf0, 0xbd, 0x04, 0x65, 0x2d, 0xbe,
  0x86, 0x33, 0x24, 0x3e, 0xfa, 0xe1, 0x14, 0xbd, 0xd9, 0x9c, 0x6d, 0xbd,
  0x7a, 0x42, 0xf4, 0x3c, 0xcd, 0x35, 0x30, 0xbe, 0x8b, 0x07, 0x90, 0xbe,
  0x53, 0x5c, 0x41, 0xbe, 0x6d, 0x2c, 0x9e, 0xbe, 0xa1, 0x71, 0x45, 0xbd,
  0x40, 0x58, 0x77, 0x3d, 0x4f, 0x9c, 0x8a, 0xbe, 0x4f, 0x83, 0x0a, 0xbe,
  0x4c, 0x22, 0x34, 0xbe, 0xb3, 0x2e, 0x4b, 0xbd, 0x3f, 0xa7, 0xfe, 0xbd,
  0x3f, 0xf4, 0xea, 0x3d, 0x92, 0xed, 0x08, 0xbe, 0xde, 0x13, 0x24, 0x3d,
  0x89, 0xcc, 0x5f, 0x3b, 0xb6, 0x3f, 0x8d, 0xbd, 0x03, 0x66, 0x4c, 0x3d,
  0x52, 0x8d, 0xfa, 0xbd, 0xbb, 0x4a, 0xea, 0xbd, 0xeb, 0x5d, 0x4b, 0xbe,
  0x1e, 0x58, 0x7a, 0x3d, 0x7f, 0x3f, 0xa6, 0x3c, 0x5d, 0xaa, 0x2e, 0xbe,
  0x91, 0x7f, 0xc7, 0xbd, 0x20, 0x1a, 0x99, 0xbd, 0xdc, 0xa6, 0xcf, 0x3d,
  0xd8, 0x9a, 0xb2, 0xbd, 0xe7, 0x10, 0x00, 0xbe, 0x4f, 0x03, 0x12, 0x3d,
  0xcb, 0x78, 0x25, 0x3e, 0x04, 0x86, 0x28, 0xbe, 0x40, 0xf7, 0x9b, 0x3d,
  0x56, 0xa0, 0xee, 0xbc, 0xb4, 0xce, 0xad, 0xbe, 0xf4, 0xe4, 0xf8, 0xbd,
  0x9d, 0x9b, 0xae, 0xbd, 0x6e, 0xdf, 0x5c, 0xbe, 0xbd, 0x78, 0x86, 0xbe,
  0x1d, 0x3e, 0x55, 0xbe, 0xda, 0x11, 0x54, 0xbe, 0xb5, 0x3b, 0xc3, 0xbd,
  0x69, 0x38, 0x29, 0x3e, 0x77, 0x02, 0x04, 0xbe, 0x7c, 0x50, 0x3f, 0xbe,
  0xb8, 0xf3, 0xf2, 0xbc, 0xb2, 0xad, 0xd8, 0x3d, 0xe2, 0xfd, 0x28, 0xbe,
  0x3f, 0xa8, 0xb2, 0xbd, 0x86, 0x26, 0xf8, 0x3c, 0x66, 0xed, 0x8d, 0xbe,
  0x0a, 0xf2, 0xee, 0x3c, 0x19, 0x2f, 0x47, 0xbe, 0x1b, 0xeb, 0x87, 0xbe,
  0x23, 0x33, 0x5b, 0xbe, 0xf6, 0x40, 0xa0, 0xbd, 0x11, 0xf8, 0xc7, 0x3d,
  0x8f, 0xd0, 0x1a, 0xbe, 0x3a, 0xbc, 0xef, 0x3d, 0x73, 0xd9, 0x18, 0xbe,
  0xbf, 0xd5, 0x02, 0xbe, 0x27, 0xda, 0x92, 0xbe, 0x93, 0x41, 0x4b, 0xba,
  0x43, 0x50, 0xa4, 0xbd, 0x40, 0x26, 0x13, 0x3e, 0xc7, 0xa5, 0xac, 0xbe,
  0x89, 0x75, 0x96, 0xbc, 0xb7, 0x1f, 0x8e, 0x3d, 0x16, 0x8d, 0xc4, 0xbe,
  0x65, 0x55, 0x4c, 0x3f, 0x97, 0xac, 0xfa, 0x3d, 0x6a, 0xad, 0x95, 0xbe,
  0xb9, 0x06, 0x41, 0xbd, 0x3c, 0x67, 0x9b, 0xbe, 0x4a, 0xdc, 0x8b, 0xbe,
  0xd1, 0xfc, 0x51, 0xbe, 0x3b, 0xa9, 0x57, 0xbe, 0x55, 0x16, 0xa9, 0xbe,
  0x97, 0x87, 0x44, 0xbf, 0xe0, 0x5e, 0x38, 0xbd, 0xb4, 0x3d, 0x96, 0x3e,
  0x77, 0x8e, 0x7e, 0xbc, 0x69, 0x74, 0x11, 0xbd, 0xb4, 0x0c, 0x1b, 0xbe,
  0xd4, 0x20, 0x90, 0xbe, 0x46, 0x41, 0xb9, 0x3f, 0x50, 0x51, 0x2f, 0x3e,
  0x89, 0x8a, 0xd5, 0xbe, 0x8c, 0x0f, 0xa9, 0x3e, 0xa5, 0x95, 0xa9, 0xbe,
  0xbd, 0xbf, 0x1f, 0x3d, 0x0e, 0xa2, 0x95, 0xbc, 0xd2, 0xd3, 0xb7, 0xbe,
  0xf3, 0x5b, 0x4e, 0x3d, 0x4d, 0x61, 0x20, 0xbf, 0xb2, 0x75, 0x3a, 0x3d,
  0xf9, 0xbb, 0x94, 0x3f, 0x75, 0x4d, 0x07, 0xbd, 0xfa, 0xcb, 0x9e, 0x3b,
  0x82, 0x69, 0x5f, 0xbe, 0x0a, 0xaa, 0xa3, 0xbe, 0x16, 0xcb, 0xef, 0x3f,
  0xaf, 0x2f, 0x72, 0xbe, 0xf3, 0xf8, 0x7b, 0xbe, 0x96, 0x7f, 0xc4, 0x3e,
  0x1b, 0xff, 0x9a, 0xbe, 0x02, 0x37, 0xb2, 0x3d, 0x2a, 0x0d, 0x25, 0xbe,
  0xc3, 0x3d, 0x43, 0xbe, 0xe4, 0xc6, 0x91, 0x3d, 0x22, 0xd2, 0x28, 0xbf,
  0xaf, 0x03, 0xf3, 0xbd, 0xdf, 0x3f, 0xb0, 0x3f, 0x8a, 0xfd, 0x98, 0xbe,
  0x5c, 0xd6, 0x68, 0x3f, 0xba, 0x99, 0x3f, 0xbd, 0xd8, 0xe2, 0xa9, 0xbe,
  0xe1, 0xb6, 0xbe, 0x3f, 0x57, 0x0a, 0xab, 0x3c, 0x5f, 0x4a, 0xad, 0xbe,
  0xe5, 0xf6, 0x9f, 0x3d, 0x78, 0x3c, 0xb2, 0xbd, 0x9c, 0x1b, 0x8e, 0x3c,
  0x7f, 0x96, 0xc6, 0xbe, 0xb2, 0xc3, 0xdf, 0xbe, 0x9a, 0x54, 0x47, 0xbe,
  0x42, 0xd6, 0x27, 0xbf, 0x44, 0x53, 0x61, 0x3e, 0xc3, 0x88, 0x33, 0x3f,
  0x5e, 0x64, 0x07, 0xbe, 0xa4, 0x56, 0x01, 0x3d, 0x7c, 0x24, 0x10, 0xbe,
  0xdd, 0x72, 0xa2, 0xbe, 0x38, 0x7f, 0xc7, 0x3f, 0x5f, 0x1b, 0xcd, 0xbc,
  0x0e, 0x5e, 0xf2, 0xbe, 0x04, 0x2b, 0x90, 0xbd, 0x75, 0xd4, 0xc6, 0xbb,
  0x80, 0x08, 0xf5, 0x3d, 0x61, 0xe3, 0xe1, 0xbe, 0x47, 0x7c, 0x70, 0xbe,
  0x3a, 0x8c, 0x2c, 0xbc, 0x1c, 0xe3, 0x3f, 0xbf, 0x54, 0x2b, 0x86, 0x3e,
  0x39, 0x4d, 0x90, 0x3f, 0xbb, 0x08, 0x95, 0xbe, 0x50, 0xb6, 0xd8, 0x3e,
  0x34, 0x85, 0x80, 0xbe, 0x87, 0xe2, 0x20, 0xbe, 0x12, 0xd8, 0x0d, 0x40,
  0xd9, 0x52, 0x8a, 0xbd, 0x40, 0x30, 0xe7, 0xbe, 0xde, 0xa7, 0x80, 0xbe,
  0xf0, 0xaa, 0x01, 0xbe, 0x70, 0x67, 0xbe, 0xbd, 0x60, 0x0f, 0xbd, 0xbe,
  0x2e, 0x69, 0xaa, 0xbe, 0x05, 0xa4, 0x31, 0x3b, 0x2e, 0xbf, 0x08, 0xbf,
  0x30, 0xc1, 0x9c, 0xbd, 0x45, 0xd1, 0xf8, 0xbd, 0xe0, 0xd8, 0x6a, 0xbe,
  0x09, 0x2e, 0x89, 0xbe, 0x3c, 0x3e, 0x2f, 0xbe, 0x7b, 0x53, 0x62, 0xbe,
  0x4b, 0x58, 0x9c, 0x3d, 0x22, 0xc3, 0xa9, 0xbe, 0xdf, 0xa9, 0x3a, 0xbe,
  0x97, 0x16, 0x67, 0xbd, 0x7a, 0xd1, 0x6c, 0xbe, 0xe9, 0xad, 0xbe, 0x3d,
  0xbc, 0x6e, 0xd3, 0xbe, 0x11, 0x2c, 0xb7, 0xbe, 0x8f, 0xb1, 0x35, 0xbe,
  0xf2, 0x90, 0x15, 0xbf, 0x5a, 0x02, 0x28, 0xbe, 0xf2, 0xa2, 0xb0, 0xb9,
  0xd3, 0xb7, 0x2d, 0xbd, 0x96, 0x74, 0x1c, 0xbe, 0xb5, 0xe1, 0x96, 0x3d,
  0x59, 0x21, 0x00, 0xbe, 0xbe, 0x9f, 0x94, 0x3d, 0x1a, 0xc0, 0x19, 0x3e,
  0x47, 0xe0, 0x1c, 0xbe, 0xc5, 0x66, 0x0a, 0xbe, 0xfa, 0x1b, 0xc1, 0xbd,
  0x3a, 0xaf, 0x60, 0xbc, 0xf7, 0x27, 0xe9, 0x3d, 0xdd, 0xda, 0xb9, 0xbc,
  0xee, 0x26, 0x5e, 0xbe, 0x2d, 0xa4, 0xe4, 0xbe, 0x61, 0x55, 0xd2, 0xbd,
  0x72, 0xd2, 0x8d, 0x3d, 0xb8, 0x2c, 0x7b, 0x3c, 0x0b, 0x36, 0xae, 0xbd,
  0x22, 0x4f, 0x54, 0xbe, 0x7b, 0xc5, 0x2f, 0x3c, 0xeb, 0xf9, 0xea, 0xbd,
  0x82, 0x3e, 0x4b, 0xbb, 0x8e, 0xbe, 0x08, 0xbe, 0xa2, 0x7f, 0xa1, 0x3d,
  0xb8, 0x10, 0x84, 0xbe, 0x81, 0xbe, 0x70, 0x3d, 0x7a, 0x50, 0x6e, 0xbe,
  0x85, 0x75, 0xa7, 0x3c, 0x2f, 0x40, 0x1e, 0x3e, 0xce, 0x9e, 0xcb, 0xbe,
  0x16, 0x36, 0x4e, 0xbe, 0x65, 0xed, 0x5a, 0xbe, 0xff, 0x80, 0xa2, 0x3d,
  0x99, 0x34, 0x0b, 0xbd, 0x2e, 0xa6, 0xaf, 0x3c, 0x7a, 0x64, 0xa6, 0xbd,
  0x1f, 0x2b, 0xf5, 0x3c, 0x1b, 0x1f, 0x88, 0xbe, 0x8a, 0x25, 0x66, 0xbe,
  0x80, 0xc4, 0x8b, 0xbd, 0xff, 0x50, 0xa6, 0xbd, 0xba, 0x9b, 0xdd, 0x3d,
  0xaf, 0x05, 0xd7, 0xbd, 0x56, 0xb2, 0xf7, 0xbc, 0xf4, 0x5c, 0xc6, 0xbc,
  0xf5, 0x76, 0xc5, 0xbe, 0x5c, 0x98, 0x09, 0xbe, 0x1d, 0xde, 0x4e, 0xbe,
  0x0d, 0x18, 0x05, 0xbc, 0x7f, 0xeb, 0x7d, 0xbe, 0x98, 0xc7, 0x29, 0x3d,
  0xd8, 0xdd, 0x05, 0xbe, 0x18, 0x3d, 0xbd, 0xbd, 0x5b, 0x48, 0xc5, 0xbc,
  0x2a, 0x05, 0xe6, 0xbd, 0x73, 0x95, 0x0c, 0x3d, 0x93, 0x55, 0x41, 0xbe,
  0x74, 0x12, 0x04, 0x3d, 0xa1, 0x5a, 0xd0, 0xbd, 0x74, 0x69, 0x87, 0xbe,
  0x3f, 0x20, 0xce, 0xbd, 0x54, 0xda, 0xe9, 0xbd, 0xa0, 0xa1, 0x9f, 0xbc,
  0x82, 0x97, 0xf0, 0xbc, 0x6a, 0xda, 0xb0, 0xbc, 0xba, 0x0c, 0xe3, 0xbd,
  0x20, 0x16, 0x06, 0xbe, 0x36, 0x42, 0xc1, 0xbd, 0x4d, 0x22, 0x6f, 0xbe,
  0x00, 0x2b, 0x2a, 0xbe, 0xcd, 0x15, 0xf9, 0x3c, 0x01, 0xce, 0x92, 0xbd,
  0x3d, 0xd1, 0x25, 0xbe, 0x20, 0xe3, 0xe2, 0xbd, 0x63, 0xca, 0xa1, 0x3b,
  0xbc, 0xb7, 0x6d, 0xbe, 0xbd, 0xb8, 0xc7, 0xbd, 0x28, 0xda, 0x02, 0xbf,
  0xd8, 0x31, 0x1c, 0xbd, 0xb4, 0x3d, 0x06, 0x3e, 0x89, 0x4e, 0xf3, 0xbd,
  0xea, 0xb2, 0xbb, 0x3c, 0x4a, 0x7f, 0xb9, 0x3d, 0x23, 0x0c, 0x5b, 0xbe,
  0xfc, 0x9e, 0x26, 0x3e, 0x20, 0x2c, 0x15, 0x3d, 0x76, 0xce, 0xe0, 0xbc,
  0x5a, 0x2c, 0x39, 0xbd, 0xfe, 0x01, 0xa7, 0x3d, 0xd0, 0x2c, 0x66, 0xbe,
  0xed, 0x1d, 0x9e, 0xbd, 0xd1, 0x7c, 0xa1, 0xbd, 0x75, 0xe3, 0x58, 0x3d,
  0xea, 0xf1, 0x9d, 0xbe, 0x79, 0xa3, 0xdb, 0x3d, 0x97, 0x94, 0x42, 0xbe,
  0x0c, 0xb4, 0x6b, 0xbe, 0xd6, 0x62, 0xe7, 0xbd, 0xf4, 0xa5, 0xb3, 0xbc,
  0xa4, 0x2d, 0xa0, 0xbd, 0x33, 0x83, 0xad, 0xbb, 0xfd, 0xc2, 0xf8, 0xbb,
  0x19, 0x99, 0x1e, 0xbe, 0x2c, 0xc5, 0xff, 0xbd, 0x5b, 0x65, 0x64, 0x3d,
  0x05, 0xbd, 0x4d, 0x3d, 0xf5, 0xc0, 0xc9, 0xbe, 0xd9, 0x6b, 0x5d, 0xbc,
  0x53, 0x3a, 0x73, 0x3d, 0xdf, 0xd6, 0xb4, 0xbe, 0x21, 0x2c, 0x83, 0xbe,
  0x1a, 0x65, 0xf6, 0x3d, 0xf2, 0x49, 0xaf, 0xbd, 0xd8, 0xf0, 0x29, 0x3e,
  0x25, 0xaa, 0x57, 0x3d, 0xff, 0xc3, 0x3d, 0xbd, 0xbe, 0x10, 0x76, 0x3e,
  0x2f, 0x7d, 0x9a, 0x3e, 0x7e, 0xf0, 0x77, 0xbd, 0x71, 0xd3, 0xca, 0xbb,
  0x96, 0xc7, 0xa3, 0x3d, 0x8b, 0x52, 0xe8, 0xbd, 0x43, 0x7f, 0x64, 0xbd,
  0xeb, 0x26, 0x2c, 0xbd, 0x3d, 0x45, 0x8b, 0x3e, 0x1b, 0xa6, 0x6f, 0xbe,
  0x4b, 0x72, 0x3f, 0x3d, 0x87, 0xd8, 0x9c, 0x3e, 0xc1, 0x4e, 0x88, 0xbc,
  0x47, 0x50, 0xa7, 0x3d, 0x7c, 0x77, 0xe2, 0x3d, 0x6e, 0x29, 0xa1, 0xbe,
  0x11, 0xa9, 0x3b, 0xbe, 0xc9, 0xeb, 0x39, 0x3e, 0x7f, 0xae, 0xae, 0xbd,
  0xcf, 0xf5, 0xec, 0x3d, 0x84, 0xac, 0x77, 0xbd, 0xf7, 0xdf, 0x07, 0xbe,
  0x15, 0x40, 0xc0, 0xbd, 0x23, 0xff, 0x9a, 0x3c, 0x6e, 0xc0, 0x1e, 0x3d,
  0xaf, 0x39, 0x9d, 0xbe, 0x6e, 0x1b, 0x78, 0x3e, 0x12, 0xc9, 0x08, 0xbe,
  0x88, 0x1d, 0xc0, 0xbd, 0xc0, 0x01, 0x5d, 0x3e, 0x8e, 0xe9, 0xda, 0xbd,
  0x53, 0xe4, 0x0c, 0xbd, 0xa1, 0x36, 0x6e, 0x3b, 0xb5, 0x63, 0x06, 0x3e,
  0x3b, 0x00, 0x82, 0xbe, 0x41, 0x95, 0xb1, 0xbc, 0x0c, 0xfe, 0xf4, 0x3d,
  0x25, 0xd8, 0x12, 0xbe, 0xc3, 0xb4, 0x32, 0xbe, 0x7a, 0xa4, 0x8c, 0x3e,
  0x85, 0x85, 0xa3, 0x3e, 0x7a, 0xed, 0xdb, 0xbd, 0x2b, 0x96, 0x0a, 0xbe,
  0xb6, 0x4a, 0x28, 0x3e, 0x38, 0xb5, 0x85, 0x3d, 0x87, 0x4c, 0x20, 0xbd,
  0x28, 0x88, 0xe8, 0x3c, 0x6d, 0x0d, 0x1b, 0x3e, 0xfc, 0x5f, 0x7e, 0xbd,
  0x24, 0x4a, 0xc5, 0x3d, 0x20, 0xe9, 0xff, 0xbd, 0x56, 0xc7, 0x0c, 0x3e,
  0xc8, 0x17, 0xc2, 0xbd, 0x8b, 0x1b, 0x4a, 0x3d, 0xb2, 0xec, 0x87, 0xbe,
  0x44, 0xd5, 0x1e, 0x3e, 0xd4, 0xf5, 0x89, 0x3e, 0x3b, 0x32, 0x97, 0xbe,
  0xf8, 0xbd, 0xdb, 0xbd, 0xf5, 0x0b, 0xd8, 0x3d, 0x37, 0xd8, 0x2a, 0xbd,
  0x79, 0x9a, 0x2e, 0x3d, 0x59, 0x36, 0xac, 0xbc, 0xdc, 0xa0, 0x08, 0xbe,
  0x65, 0x32, 0x16, 0xbc, 0x7a, 0xd4, 0x06, 0xbc, 0x01, 0x75, 0x7e, 0xbe,
  0x01, 0xef, 0x48, 0xbc, 0xa8, 0x2c, 0x26, 0x3e, 0xf0, 0x4c, 0xdb, 0x3c,
  0xe7, 0x5f, 0x87, 0xbe, 0xb6, 0x5e, 0x4b, 0x3e, 0xf9, 0xec, 0xfd, 0x3c,
  0x27, 0x3b, 0x58, 0xbe, 0x78, 0x0b, 0x86, 0x3e, 0xcf, 0x52, 0xdf, 0x3d,
  0x13, 0x22, 0x82, 0xbe, 0x14, 0xc0, 0x65, 0x3d, 0x27, 0x5b, 0xf4, 0xbd,
  0x76, 0x94, 0x47, 0xbe, 0x23, 0x59, 0x85, 0x3d, 0x99, 0x3f, 0x4d, 0xbd,
  0xb4, 0x01, 0x33, 0xbd, 0xb4, 0xff, 0x9a, 0xbd, 0x02, 0xa5, 0x05, 0xbe,
  0x6a, 0x49, 0xc8, 0xbc, 0x9e, 0x34, 0x76, 0xbd, 0x01, 0x9b, 0x4b, 0x3e,
  0x51, 0x1f, 0xff, 0x3d, 0x22, 0x5f, 0x80, 0xbe, 0xed, 0xa0, 0xd8, 0xba,
  0xdc, 0x9f, 0xf7, 0xbc, 0x3f, 0x1a, 0x13, 0xbe, 0xe5, 0xed, 0x75, 0xbe,
  0x2a, 0x4f, 0x5a, 0xbe, 0x36, 0x7b, 0x46, 0xbe, 0xba, 0x61, 0xdf, 0xbc,
  0x2c, 0x62, 0xb0, 0xbd, 0x10, 0xf4, 0xb2, 0xbd, 0xb4, 0x4c, 0x9c, 0x3d,
  0xd7, 0xe7, 0x2f, 0x3e, 0xda, 0xf1, 0x1b, 0xbe, 0x80, 0xe7, 0xd8, 0xbd,
  0x45, 0x79, 0x6e, 0xbd, 0x99, 0xbd, 0xf3, 0x3d, 0xef, 0xff, 0x81, 0xbe,
  0x23, 0xc8, 0x91, 0xbd, 0x6f, 0x58, 0x0e, 0x3e, 0x21, 0xbb, 0xaf, 0xbe,
  0x06, 0xf9, 0x9b, 0xbd, 0xb6, 0xe7, 0x37, 0xbd, 0x16, 0xa5, 0xb4, 0xbd,
  0x9e, 0x61, 0x06, 0x3f, 0x77, 0xcd, 0xd2, 0xbd, 0xa1, 0x25, 0xc8, 0xbe,
  0x72, 0xcd, 0x9e, 0xbe, 0x55, 0x75, 0x9a, 0xbe, 0x0c, 0xad, 0x33, 0xbe,
  0x0b, 0x51, 0x3c, 0xbe, 0xaf, 0x39, 0xa6, 0xbe, 0x86, 0xdd, 0x74, 0xbd,
  0xe5, 0x72, 0xdb, 0xbe, 0x9c, 0xe7, 0xcd, 0x3e, 0x29, 0x74, 0x8d, 0x3d,
  0x82, 0x8c, 0x01, 0xbe, 0xb6, 0xea, 0x07, 0x3e, 0xe0, 0x7f, 0x62, 0xbe,
  0xb9, 0x90, 0x40, 0xbe, 0x72, 0xf5, 0xd6, 0x3f, 0x1d, 0xaa, 0xa2, 0x3d,
  0xab, 0xe3, 0x25, 0xbe, 0xbe, 0xba, 0x23, 0xbe, 0xb8, 0xfd, 0xbc, 0xbd,
  0x0a, 0x0f, 0xad, 0xba, 0xc4, 0x20, 0x3f, 0x3b, 0xb2, 0x34, 0x93, 0xbe,
  0xc8, 0xe3, 0xe8, 0xbd, 0x7f, 0x9e, 0x19, 0xbf, 0x0d, 0x49, 0xb0, 0xbd,
  0x9a, 0x74, 0xc7, 0x3e, 0xff, 0xbb, 0x80, 0xbe, 0xcc, 0x74, 0xa5, 0xbc,
  0x9e, 0xe6, 0x4f, 0xbe, 0xfa, 0x1d, 0x9a, 0xbe, 0xa9, 0xe2, 0x95, 0x3f,
  0xef, 0xe8, 0x6f, 0xbe, 0xc3, 0x9b, 0x0c, 0xbe, 0xfd, 0xca, 0x9b, 0x3d,
  0x98, 0xc4, 0xd9, 0xbd, 0xec, 0x57, 0x92, 0xbd, 0xbc, 0xb3, 0xc9, 0x3c,
  0xc7, 0x0b, 0x50, 0xbe, 0x2a, 0x37, 0xff, 0xbc, 0x51, 0xfd, 0x11, 0xbf,
  0xca, 0x84, 0xce, 0xbc, 0x1f, 0x9a, 0x83, 0xbe, 0xac, 0x7a, 0x85, 0xbe,
  0xb3, 0x6e, 0x5f, 0x3e, 0x05, 0xf5, 0x68, 0xbe, 0xb1, 0xab, 0x9c, 0xbe,
  0x0e, 0xd2, 0xcf, 0x3f, 0x9b, 0x77, 0x1b, 0xbe, 0x9a, 0x29, 0xde, 0xbe,
  0xeb, 0xfd, 0x0d, 0xbc, 0x0b, 0x9c, 0x37, 0xbe, 0x32, 0x8c, 0xd4, 0x3d,
  0x18, 0x36, 0xbe, 0xbe, 0x84, 0xfd, 0x68, 0xbe, 0xf4, 0x45, 0x19, 0x3d,
  0xe2, 0x0e, 0xe1, 0xbe, 0x06, 0xdd, 0xa4, 0xbe, 0x6e, 0x32, 0x16, 0x3f,
  0x33, 0x94, 0x29, 0xbe, 0x72, 0x18, 0x41, 0xbe, 0xe6, 0x68, 0x89, 0xbd,
  0x59, 0xe3, 0xd2, 0xbe, 0xc8, 0x88, 0xd2, 0x3f, 0xe4, 0x7c, 0x88, 0x3d,
  0x10, 0xdf, 0xca, 0xbe, 0x08, 0x00, 0x19, 0xbe, 0x0c, 0x1c, 0xd2, 0xbe,
  0x33, 0x00, 0x77, 0x3d, 0x71, 0x43, 0xab, 0xbe, 0x32, 0x3d, 0x89, 0xbe,
  0x21, 0xf0, 0x95, 0xbd, 0x36, 0x85, 0xcf, 0xbe, 0xa7, 0xbf, 0x1e, 0xbe,
  0xa4, 0x0d, 0x6b, 0xbe, 0xcc, 0x70, 0x97, 0xbe, 0xe7, 0xa2, 0x9c, 0x3e,
  0xc9, 0xc5, 0x05, 0x3d, 0xb9, 0xe9, 0x88, 0xbe, 0x82, 0x20, 0xed, 0x3f,
  0x8a, 0xf7, 0x90, 0xbe, 0xe5, 0x4e, 0xc5, 0xbe, 0xbb, 0xce, 0xff, 0xbc,
  0x4d, 0x54, 0x96, 0xbe, 0xe6, 0x02, 0x61, 0xbc, 0xce, 0x42, 0x97, 0xbe,
  0xf1, 0x10, 0xa4, 0x3c, 0x54, 0x16, 0xe7, 0xbc, 0x5a, 0x11, 0xc1, 0xbe,
  0xb7, 0xf2, 0x12, 0x3d, 0x14, 0xa3, 0x41, 0xbe, 0x20, 0x35, 0x8c, 0xbe,
  0x0e, 0xa9, 0xb1, 0xbe, 0xff, 0x0e, 0xad, 0xbe, 0x59, 0x4d, 0xbe, 0xbe,
  0xca, 0x83, 0x63, 0x3f, 0x72, 0x07, 0x51, 0xbd, 0xe5, 0x68, 0x94, 0xbe,
  0xd8, 0x6f, 0x18, 0xbe, 0x3f, 0x98, 0x58, 0xbe, 0x8e, 0xb4, 0x7b, 0xba,
  0x30, 0x8e, 0x30, 0xbe, 0xce, 0x94, 0x83, 0xbe, 0x0f, 0x2e, 0xd9, 0xbd,
  0xcf, 0x2d, 0xf1, 0xbe, 0xb4, 0x56, 0xb4, 0xbe, 0x0f, 0x57, 0xb7, 0xbd,
  0x18, 0x2e, 0x44, 0xbd, 0xa9, 0xcd, 0xa5, 0xbe, 0xc4, 0xdc, 0x15, 0xbe,
  0xc3, 0xb3, 0x2f, 0xbe, 0xf7, 0x58, 0x5f, 0x3d, 0x1c, 0xa6, 0x26, 0x3e,
  0x52, 0xb9, 0x69, 0xbe, 0x33, 0xa6, 0x45, 0xbe, 0x2c, 0x3d, 0xa5, 0xbd,
  0xce, 0xf2, 0x84, 0x3e, 0xff, 0x50, 0xc9, 0xbe, 0xaf, 0x84, 0xe3, 0xbd,
  0xbe, 0x1e, 0x72, 0xbe, 0x81, 0x95, 0xc4, 0xbc, 0x25, 0x18, 0xbf, 0xbe,
  0xae, 0xd5, 0x27, 0x3e, 0x8f, 0x49, 0xc5, 0xbd, 0x41, 0xd4, 0x58, 0xbe,
  0x91, 0x98, 0xcb, 0xbc, 0x89, 0xfa, 0x8b, 0xbd, 0xec, 0xbd, 0x3c, 0x3d,
  0xfc, 0x14, 0x20, 0x3e, 0x1d, 0x77, 0x8f, 0xbe, 0x36, 0xd1, 0x80, 0xbc,
  0x5c, 0xd1, 0xb2, 0xbd, 0xf2, 0x33, 0x3c, 0x3e, 0xe1, 0x6e, 0x22, 0xbe,
  0xa4, 0xdd, 0x25, 0xbd, 0xdc, 0x91, 0x39, 0xbe, 0x5a, 0x3f, 0x2e, 0x3e,
  0x3d, 0x90, 0x1d, 0xbe, 0xeb, 0xd6, 0x05, 0xbe, 0x16, 0x94, 0xb0, 0xbc,
  0x5f, 0x4e, 0xdb, 0xbe, 0x99, 0x1c, 0x33, 0x3e, 0x65, 0xdd, 0xcf, 0xbd,
  0xeb, 0x31, 0x48, 0xbe, 0x69, 0x8e, 0x18, 0x3e, 0x58, 0x60, 0xbd, 0xbd,
  0xd5, 0x00, 0xf5, 0x3c, 0xaf, 0x0a, 0xa8, 0x3d, 0xd7, 0xfe, 0xbf, 0x3d,
  0xa8, 0xd8, 0x75, 0xbe, 0x59, 0xb7, 0x1f, 0xbe, 0x92, 0x11, 0x00, 0x3e,
  0x56, 0x88, 0x5a, 0x3e, 0x20, 0xae, 0xe0, 0x3c, 0xa4, 0x2c, 0x7c, 0xbc,
  0xf4, 0x97, 0x4f, 0xbe, 0x85, 0x81, 0x16, 0xbf, 0xa8, 0x12, 0x78, 0xbd,
  0xc2, 0xa5, 0xe5, 0xbc, 0xdd, 0x2f, 0x72, 0x3d, 0x05, 0xb6, 0xec, 0x3d,
  0xdc, 0x77, 0x4f, 0x3d, 0x90, 0xe9, 0x0e, 0x3e, 0xef, 0x7e, 0xce, 0xbd,
  0x8a, 0xcf, 0xa6, 0xbc, 0x98, 0xdd, 0x87, 0xbe, 0x5d, 0xc3, 0xde, 0xbd,
  0xf9, 0xba, 0x4f, 0x3d, 0xe2, 0x2e, 0x1f, 0x3c, 0xee, 0x4c, 0x04, 0x3e,
  0x77, 0x9e, 0x5a, 0x3b, 0xb3, 0xaf, 0xbe, 0x3b, 0xed, 0x13, 0x11, 0xbd,
  0xd6, 0x54, 0xeb, 0xbd, 0xe3, 0x7e, 0x52, 0x3d, 0xcc, 0xac, 0x49, 0xbb,
  0xef, 0x11, 0x41, 0x3b, 0xd4, 0xf3, 0x99, 0xbd, 0xcc, 0x26, 0xe8, 0x3d,
  0x3f, 0x25, 0x2e, 0xbc, 0xf2, 0x39, 0x30, 0xbe, 0xae, 0x2b, 0xca, 0xbd,
  0xc2, 0xaa, 0xb8, 0xbd, 0x0f, 0x6b, 0xcf, 0xbd, 0x11, 0x37, 0x15, 0xbc,
  0x6d, 0x80, 0x66, 0xbc, 0x0c, 0xd9, 0xd4, 0xbd, 0xc3, 0x14, 0x40, 0x3e,
  0x0c, 0xbb, 0x90, 0xbd, 0xf6, 0x24, 0x9a, 0xbd, 0xb9, 0x6c, 0x41, 0xbd,
  0x80, 0x76, 0x27, 0xbe, 0x19, 0x02, 0x12, 0x3e, 0x60, 0x36, 0xcf, 0x3c,
  0x25, 0x8f, 0x5e, 0xbd, 0x54, 0x12, 0x86, 0x3e, 0xed, 0x78, 0x6a, 0x3b,
  0x83, 0x08, 0x3a, 0xbd, 0xdf, 0xd0, 0xc4, 0xbd, 0x48, 0x5f, 0x7d, 0xbd,
  0xdd, 0x51, 0x97, 0xbd, 0xaa, 0x4b, 0xab, 0xbc, 0x79, 0xa5, 0x43, 0x3a,
  0x66, 0xbd, 0xd6, 0x3c, 0x16, 0xad, 0xe6, 0xbd, 0x94, 0xcd, 0xd0, 0xbd,
  0x61, 0x8b, 0xdc, 0xbd, 0xe7, 0xa6, 0x97, 0xbe, 0x03, 0xb7, 0xb8, 0xbc,
  0xef, 0xae, 0x4c, 0xbc, 0x6a, 0x50, 0xad, 0x3d, 0xef, 0xc0, 0x4a, 0xbe,
  0xbd, 0x8d, 0x2a, 0xbd, 0x77, 0xf4, 0x72, 0xbe, 0x73, 0xa6, 0x2c, 0x3e,
  0x1d, 0x82, 0x3b, 0xbc, 0x2f, 0x99, 0xb1, 0xbc, 0x98, 0xc0, 0xa0, 0xbc,
  0x46, 0xfe, 0xff, 0xff, 0x10, 0x00, 0x00, 0x00, 0x05, 0x00, 0x00, 0x00,
  0x14, 0x00, 0x00, 0x00, 0x2c, 0x00, 0x00, 0x00, 0x02, 0x00, 0x00, 0x00,
  0x10, 0x00, 0x00, 0x00, 0x70, 0x00, 0x00, 0x00, 0x17, 0x00, 0x00, 0x00,
  0x73, 0x65, 0x71, 0x75, 0x65, 0x6e, 0x74, 0x69, 0x61, 0x6c, 0x2f, 0x64,
  0x65, 0x6e, 0x73, 0x65, 0x2f, 0x4d, 0x61, 0x74, 0x4d, 0x75, 0x6c, 0x00,
  0x34, 0xfe, 0xff, 0xff, 0x2a, 0xff, 0xff, 0xff, 0x04, 0x00, 0x00, 0x00,
  0x08, 0x00, 0x00, 0x00, 0xff, 0xff, 0xff, 0xff, 0x70, 0x00, 0x00, 0x00,
  0x00, 0x00, 0x0e, 0x00, 0x18, 0x00, 0x08, 0x00, 0x07, 0x00, 0x0c, 0x00,
  0x10, 0x00, 0x14, 0x00, 0x0e, 0x00, 0x00, 0x00, 0x00, 0x00, 0x00, 0x02,
  0x10, 0x00, 0x00, 0x00, 0x04, 0x00, 0x00, 0x00, 0x10, 0x00, 0x00, 0x00,
  0x2c, 0x00, 0x00, 0x00, 0x01, 0x00, 0x00, 0x00, 0x02, 0x00, 0x00, 0x00,
  0x18, 0x00, 0x00, 0x00, 0x73, 0x65, 0x71, 0x75, 0x65, 0x6e, 0x74, 0x69,
  0x61, 0x6c, 0x2f, 0x66, 0x6c, 0x61, 0x74, 0x74, 0x65, 0x6e, 0x2f, 0x43,
  0x6f, 0x6e, 0x73, 0x74, 0x00, 0x00, 0x00, 0x00, 0x9c, 0xfe, 0xff, 0xff,
  0x92, 0xff, 0xff, 0xff, 0x04, 0x00, 0x00, 0x00, 0x10, 0x00, 0x00, 0x00,
  0x94, 0xe3, 0xf5, 0x3f, 0x4b, 0x31, 0xef, 0xbe, 0x16, 0xb3, 0x4b, 0xbf,
  0xbe, 0x4d, 0x02, 0xc0, 0x0a, 0xff, 0xff, 0xff, 0x10, 0x00, 0x00, 0x00,
  0x03, 0x00, 0x00, 0x00, 0x10, 0x00, 0x00, 0x00, 0x3c, 0x00, 0x00, 0x00,
  0x01, 0x00, 0x00, 0x00, 0x04, 0x00, 0x00, 0x00, 0x29, 0x00, 0x00, 0x00,
  0x73, 0x65, 0x71, 0x75, 0x65, 0x6e, 0x74, 0x69, 0x61, 0x6c, 0x2f, 0x64,
  0x65, 0x6e, 0x73, 0x65, 0x5f, 0x31, 0x2f, 0x42, 0x69, 0x61, 0x73, 0x41,
  0x64, 0x64, 0x2f, 0x52, 0x65, 0x61, 0x64, 0x56, 0x61, 0x72, 0x69, 0x61,
  0x62, 0x6c, 0x65, 0x4f, 0x70, 0x00, 0x00, 0x00, 0x60, 0xff, 0xff, 0xff,
  0x00, 0x00, 0x06, 0x00, 0x08, 0x00, 0x04, 0x00, 0x06, 0x00, 0x00, 0x00,
  0x04, 0x00, 0x00, 0x00, 0x40, 0x00, 0x00, 0x00, 0xff, 0x56, 0x82, 0x3f,
  0x7d, 0xbc, 0x51, 0xbf, 0x27, 0xf3, 0xae, 0xbd, 0x3c, 0x26, 0x89, 0xbe,
  0x7d, 0xa4, 0x3a, 0xbe, 0x55, 0xd0, 0xac, 0xbe, 0x7f, 0x07, 0xa0, 0x3f,
  0x72, 0x23, 0xb1, 0xbe, 0x3b, 0xcc, 0xcf, 0xbe, 0xd4, 0x17, 0xa4, 0x3f,
  0xe5, 0xd2, 0x3c, 0x3e, 0x08, 0xa1, 0xdf, 0x3f, 0x30, 0x72, 0x5c, 0xbe,
  0xc0, 0xe8, 0x76, 0xbf, 0xcf, 0x62, 0x56, 0x3f, 0x39, 0xc5, 0x05, 0xbe,
  0xae, 0xff, 0xff, 0xff, 0x10, 0x00, 0x00, 0x00, 0x02, 0x00, 0x00, 0x00,
  0x10, 0x00, 0x00, 0x00, 0x3c, 0x00, 0x00, 0x00, 0x01, 0x00, 0x00, 0x00,
  0x10, 0x00, 0x00, 0x00, 0x27, 0x00, 0x00, 0x00, 0x73, 0x65, 0x71, 0x75,
  0x65, 0x6e, 0x74, 0x69, 0x61, 0x6c, 0x2f, 0x64, 0x65, 0x6e, 0x73, 0x65,
  0x2f, 0x42, 0x69, 0x61, 0x73, 0x41, 0x64, 0x64, 0x2f, 0x52, 0x65, 0x61,
  0x64, 0x56, 0x61, 0x72, 0x69, 0x61, 0x62, 0x6c, 0x65, 0x4f, 0x70, 0x00,
  0x04, 0x00, 0x06, 0x00, 0x04, 0x00, 0x00, 0x00, 0x00, 0x00, 0x0e, 0x00,
  0x14, 0x00, 0x04, 0x00, 0x00, 0x00, 0x08, 0x00, 0x0c, 0x00, 0x10, 0x00,
  0x0e, 0x00, 0x00, 0x00, 0x10, 0x00, 0x00, 0x00, 0x01, 0x00, 0x00, 0x00,
  0x1c, 0x00, 0x00, 0x00, 0x2c, 0x00, 0x00, 0x00, 0x04, 0x00, 0x00, 0x00,
  0x01, 0x00, 0x00, 0x00, 0x40, 0x00, 0x00, 0x00, 0x03, 0x00, 0x00, 0x00,
  0x01, 0x00, 0x00, 0x00, 0x0c, 0x00, 0x00, 0x00, 0x63, 0x6f, 0x6e, 0x76,
  0x32, 0x64, 0x5f, 0x69, 0x6e, 0x70, 0x75, 0x74, 0x00, 0x00, 0x00, 0x00,
  0xfc, 0xff, 0xff, 0xff, 0x04, 0x00, 0x04, 0x00, 0x04, 0x00, 0x00, 0x00
};

unsigned int model_tflite_len = 12384;// Fill the int in `src/model.cc` here